<unk>	0
<s>	0
</s>	0
して	-0
され	-1
した	-2
った	-3
する	-4
ある	-5
いる	-6
から	-7
19	-8
って	-9
こと	-10
である	-11
20	-12
では	-13
として	-14
いた	-15
には	-16
された	-17
によ	-18
ている	-19
られ	-20
など	-21
その	-22
とな	-23
ない	-24
この	-25
200	-26
とい	-27
ため	-28
日本	-29
リー	-30
であ	-31
いて	-32
している	-33
また	-34
という	-35
ール	-36
よう	-37
にな	-38
もの	-39
▁19	-40
ター	-41
10	-42
ラン	-43
ック	-44
される	-45
イン	-46
スト	-47
ット	-48
年に	-49
われ	-50
まで	-51
されている	-52
、19	-53
ーム	-54
▁また	-55
これ	-56
ート	-57
っている	-58
ング	-59
18	-60
ュー	-61
▁この	-62
がある	-63
ード	-64
にお	-65
12	-66
ディ	-67
ティ	-68
でき	-69
ていた	-70
であった	-71
おり	-72
ント	-73
かった	-74
11	-75
による	-76
それ	-77
により	-78
となった	-79
していた	-80
、「	-81
ことが	-82
)。	-83
ショ	-84
▁その	-85
によって	-86
より	-87
でも	-88
リア	-89
)、	-90
▁-	-91
とも	-92
▁200	-93
れる	-94
的な	-95
なく	-96
ース	-97
られる	-98
ライ	-99
00	-100
日に	-101
しか	-102
現在	-103
との	-104
大学	-105
であり	-106
にも	-107
15	-108
ける	-109
プロ	-110
放送	-111
リカ	-112
に対	-113
▁(	-114
場合	-115
ンド	-116
れた	-117
年の	-118
につ	-119
られた	-120
時代	-121
の一	-122
を受	-123
ファ	-124
バー	-125
において	-126
16	-127
なかった	-128
となる	-129
17	-130
ーク	-131
を行	-132
とは	-133
学校	-134
での	-135
レー	-136
▁20	-137
ジャ	-138
的に	-139
だった	-140
ション	-141
ップ	-142
多く	-143
あり	-144
アメ	-145
アル	-146
er	-147
しかし	-148
コン	-149
への	-150
させ	-151
える	-152
などの	-153
▁しかし	-154
アメリカ	-155
ロー	-156
すること	-157
in	-158
世界	-159
の中	-160
について	-161
an	-162
▁これ	-163
になった	-164
ンの	-165
使用	-166
あった	-167
14	-168
カー	-169
東京	-170
13	-171
できる	-172
スタ	-173
行われ	-174
フィ	-175
スの	-176
されて	-177
と呼	-178
ステ	-179
ラー	-180
にある	-181
キャ	-182
on	-183
当時	-184
作品	-185
シー	-186
めた	-187
人の	-188
になる	-189
テレ	-190
後に	-191
存在	-192
リン	-193
けて	-194
チャ	-195
とする	-196
昭和	-197
タイ	-198
を持	-199
もある	-200
月に	-201
ように	-202
っていた	-203
後の	-204
なお	-205
、200	-206
会社	-207
ルー	-208
テレビ	-209
サー	-210
ような	-211
める	-212
シャ	-213
フォ	-214
けた	-215
ランド	-216
オー	-217
可能	-218
or	-219
30	-220
シュ	-221
ージ	-222
選手	-223
大き	-224
番組	-225
マン	-226
ar	-227
なる	-228
れば	-229
しい	-230
ために	-231
ジョ	-232
フラン	-233
られている	-234
のみ	-235
▁なお	-236
およ	-237
活動	-238
めて	-239
研究	-240
ことを	-241
んで	-242
日本の	-243
ベル	-244
のは	-245
えた	-246
st	-247
んだ	-248
国の	-249
されていた	-250
年には	-251
と同	-252
リス	-253
取り	-254
クラ	-255
at	-256
ウェ	-257
に入	-258
となり	-259
以下	-260
開発	-261
鉄道	-262
エン	-263
イル	-264
アン	-265
さら	-266
ic	-267
以降	-268
▁199	-269
映画	-270
en	-271
ブル	-272
と呼ば	-273
▁『	-274
に関	-275
多い	-276
および	-277
とした	-278
al	-279
地域	-280
年代	-281
スター	-282
しま	-283
ッド	-284
▁同	-285
▁「	-286
時間	-287
パー	-288
登場	-289
平成	-290
』(	-291
▁c	-292
なが	-293
▁その後	-294
ジェ	-295
発売	-296
いない	-297
における	-298
利用	-299
したが	-300
からの	-301
一般	-302
となっている	-303
25	-304
ニュー	-305
199	-306
バス	-307
日の	-308
コー	-309
ルト	-310
イツ	-311
らの	-312
関係	-313
フェ	-314
ゲーム	-315
、『	-316
ナー	-317
シア	-318
すると	-319
者の	-320
レイ	-321
リーズ	-322
サイ	-323
だけ	-324
代表	-325
さらに	-326
たち	-327
▁m	-328
時に	-329
チーム	-330
▁s	-331
ダー	-332
、20	-333
」(	-334
ヴァ	-335
上の	-336
セン	-337
開始	-338
年から	-339
ドイツ	-340
ヴィ	-341
サン	-342
出身	-343
に出	-344
部の	-345
ニア	-346
必要	-347
シリーズ	-348
ンは	-349
こう	-350
50	-351
ルの	-352
▁)	-353
きた	-354
問題	-355
つの	-356
レン	-357
アー	-358
発表	-359
試合	-360
かつ	-361
設置	-362
都市	-363
記録	-364
初の	-365
中心	-366
th	-367
ドラ	-368
なら	-369
ただ	-370
24	-371
まり	-372
オン	-373
大会	-374
れて	-375
に対して	-376
ともに	-377
他の	-378
われる	-379
考え	-380
ーン	-381
多くの	-382
リーグ	-383
があり	-384
ックス	-385
地方	-386
変更	-387
社会	-388
21	-389
しく	-390
トル	-391
ながら	-392
音楽	-393
引き	-394
参加	-395
チェ	-396
事業	-397
re	-398
としては	-399
世紀	-400
国際	-401
ょう	-402
大阪	-403
ほか	-404
上げ	-405
明治	-406
」「	-407
しており	-408
の名	-409
ウィ	-410
23	-411
位置	-412
グラ	-413
間の	-414
100	-415
えて	-416
りの	-417
監督	-418
戦争	-419
▁198	-420
特に	-421
イギ	-422
影響	-423
ニー	-424
自動	-425
▁一	-426
れている	-427
22	-428
le	-429
シーズ	-430
うち	-431
ことから	-432
現在の	-433
▁日本	-434
ポー	-435
ラク	-436
わせ	-437
結果	-438
と言	-439
共に	-440
イス	-441
所属	-442
だが	-443
のため	-444
ウン	-445
を見	-446
フト	-447
の大	-448
計画	-449
is	-450
優勝	-451
以下の	-452
キー	-453
ものの	-454
198	-455
▁そ	-456
開催	-457
ナル	-458
ると	-459
ころ	-460
意味	-461
メン	-462
生ま	-463
000	-464
と呼ばれる	-465
レス	-466
が行われ	-467
▁18	-468
路線	-469
ので	-470
マー	-471
スペ	-472
いく	-473
については	-474
60	-475
▁p	-476
以外	-477
カル	-478
フランス	-479
デル	-480
▁f	-481
la	-482
28	-483
ro	-484
▁は	-485
力を	-486
▁"	-487
目の	-488
、199	-489
機関	-490
文化	-491
ブラ	-492
にて	-493
ること	-494
▁d	-495
及び	-496
スク	-497
主義	-498
通り	-499
などを	-500
ビュー	-501
政府	-502
を受け	-503
を持つ	-504
27	-505
教育	-506
▁本	-507
it	-508
部分	-509
26	-510
に移	-511
ほど	-512
ただし	-513
起こ	-514
からは	-515
間に	-516
販売	-517
んど	-518
事件	-519
車両	-520
40	-521
内の	-522
をも	-523
を行う	-524
中央	-525
数の	-526
列車	-527
自身	-528
▁b	-529
とき	-530
なり	-531
ロッ	-532
アイ	-533
を務	-534
ホーム	-535
同じ	-536
アニ	-537
ッチ	-538
採用	-539
情報	-540
らず	-541
ジオ	-542
アルバ	-543
29	-544
建設	-545
軍の	-546
ぞれ	-547
者が	-548
70	-549
人が	-550
それぞれ	-551
ようになった	-552
担当	-553
があった	-554
クト	-555
線の	-556
当初	-557
経済	-558
ではなく	-559
までの	-560
システ	-561
委員	-562
後は	-563
としての	-564
攻撃	-565
状態	-566
を経	-567
かつて	-568
発生	-569
高等	-570
家の	-571
システム	-572
ではない	-573
になり	-574
中国	-575
クロ	-576
ループ	-577
することが	-578
ネット	-579
航空	-580
を含	-581
ac	-582
政治	-583
▁の	-584
||	-585
▁第	-586
前に	-587
エル	-588
km	-589
ネル	-590
モン	-591
まま	-592
いは	-593
とともに	-594
用い	-595
am	-596
当時の	-597
シング	-598
技術	-599
、2	-600
リング	-601
しない	-602
ーション	-603
前の	-604
すべ	-605
シン	-606
シーズン	-607
のが	-608
わり	-609
付け	-610
構成	-611
地区	-612
ジア	-613
獲得	-614
マイ	-615
かけて	-616
ダム	-617
ことも	-618
卒業	-619
、198	-620
イギリス	-621
)」	-622
際に	-623
リスト	-624
ものである	-625
終了	-626
選挙	-627
女性	-628
者は	-629
出場	-630
または	-631
▁これは	-632
as	-633
野球	-634
を得	-635
イト	-636
道路	-637
場所	-638
度の	-639
などが	-640
製造	-641
とされる	-642
と共に	-643
設立	-644
グループ	-645
自分	-646
といった	-647
ウス	-648
させる	-649
以上	-650
体の	-651
中に	-652
高い	-653
▁ただし	-654
▁t	-655
ソン	-656
決定	-657
ジン	-658
アルバム	-659
ことで	-660
ion	-661
られて	-662
歴史	-663
っており	-664
アニメ	-665
に対する	-666
施設	-667
ジョン	-668
機能	-669
31	-670
主に	-671
タン	-672
ールド	-673
ダイ	-674
es	-675
部に	-676
ほと	-677
ol	-678
生産	-679
あた	-680
時期	-681
マル	-682
最も	-683
デー	-684
出演	-685
えば	-686
el	-687
ビー	-688
株式	-689
を中心	-690
イタ	-691
、3	-692
合わせ	-693
最終	-694
ほとんど	-695
▁ア	-696
に分	-697
就任	-698
編成	-699
大きな	-700
▁大	-701
ロン	-702
ジュ	-703
しば	-704
制作	-705
を結	-706
us	-707
を通	-708
するため	-709
基本	-710
であるが	-711
子の	-712
バイ	-713
、1	-714
テン	-715
中の	-716
ことは	-717
設定	-718
ところ	-719
全て	-720
に関する	-721
管理	-722
▁197	-723
されており	-724
同年	-725
運転	-726
ハイ	-727
江戸	-728
ヴェ	-729
自動車	-730
に伴	-731
活躍	-732
組織	-733
構造	-734
ハン	-735
共和	-736
トリ	-737
企業	-738
場合は	-739
運動	-740
なった	-741
目的	-742
挙げ	-743
デン	-744
果た	-745
バル	-746
いで	-747
を出	-748
デビュー	-749
交通	-750
cm	-751
生活	-752
運行	-753
un	-754
時代の	-755
パン	-756
させた	-757
ドル	-758
ヨー	-759
独立	-760
ガン	-761
イタリア	-762
スコ	-763
ッカー	-764
実施	-765
常に	-766
自由	-767
ロシア	-768
スー	-769
搭載	-770
調査	-771
まった	-772
最大	-773
スは	-774
人口	-775
とし	-776
においては	-777
、18	-778
ジャー	-779
ch	-780
契約	-781
のように	-782
らか	-783
高等学校	-784
が出	-785
通常	-786
用の	-787
年間	-788
のような	-789
存在する	-790
初めて	-791
jr	-792
197	-793
になっている	-794
人物	-795
トラ	-796
期の	-797
部隊	-798
重要	-799
タル	-800
その後	-801
全国	-802
高校	-803
最高	-804
と考え	-805
45	-806
戦闘	-807
ラクター	-808
参照	-809
モデル	-810
メント	-811
プラ	-812
廃止	-813
▁それ	-814
第一	-815
異なる	-816
▁g	-817
▁現在	-818
オリ	-819
大きく	-820
じて	-821
▁2	-822
トン	-823
勝利	-824
ザー	-825
の一つ	-826
であったが	-827
名は	-828
ソフト	-829
月の	-830
()	-831
合衆	-832
議員	-833
天皇	-834
海道	-835
表記	-836
つか	-837
et	-838
へと	-839
内容	-840
文字	-841
▁彼	-842
規模	-843
▁o	-844
議会	-845
the	-846
デザ	-847
ッシュ	-848
指定	-849
バン	-850
▁1	-851
いった	-852
▁3	-853
")	-854
製作	-855
来の	-856
導入	-857
組み	-858
センター	-859
地の	-860
を発	-861
年度	-862
を果た	-863
国内	-864
om	-865
特徴	-866
ケット	-867
キャラクター	-868
スを	-869
株式会社	-870
ろう	-871
を受けた	-872
に対し	-873
漫画	-874
人は	-875
らは	-876
テー	-877
を与	-878
東京都	-879
にした	-880
▁196	-881
を使	-882
収録	-883
、197	-884
あるいは	-885
理由	-886
▁さらに	-887
対象	-888
と同じ	-889
を用	-890
評価	-891
できない	-892
特別	-893
ここ	-894
ロック	-895
的には	-896
よりも	-897
ガー	-898
の一部	-899
アナ	-900
▁n	-901
向け	-902
成功	-903
様々	-904
京都	-905
カン	-906
カード	-907
かけ	-908
▁w	-909
われた	-910
帝国	-911
▁一方	-912
を指	-913
設計	-914
ーター	-915
しまう	-916
再び	-917
公開	-918
チャン	-919
乗り	-920
されたが	-921
じた	-922
il	-923
人気	-924
ボー	-925
ra	-926
海軍	-927
日から	-928
に加	-929
行われた	-930
コミ	-931
ワー	-932
を作	-933
までは	-934
そう	-935
▁そして	-936
コード	-937
英語	-938
月には	-939
第二	-940
プレイ	-941
方法	-942
アメリカ合衆	-943
完全	-944
の主	-945
いに	-946
内に	-947
ローマ	-948
のもの	-949
連合	-950
が多い	-951
営業	-952
ロッパ	-953
196	-954
ずれ	-955
インター	-956
切り	-957
ヨーロッパ	-958
にと	-959
シェ	-960
われている	-961
ボール	-962
形式	-963
日には	-964
ユー	-965
教授	-966
メンバー	-967
名の	-968
周辺	-969
▁a	-970
を行った	-971
を使用	-972
等の	-973
いため	-974
ビア	-975
ラジオ	-976
ファン	-977
選手権	-978
ダン	-979
時の	-980
▁h	-981
方面	-982
学部	-983
os	-984
80	-985
委員会	-986
ほぼ	-987
を経て	-988
アク	-989
連続	-990
記念	-991
リオ	-992
戦で	-993
(18	-994
していたが	-995
新た	-996
シングル	-997
入れ	-998
学者	-999
スカ	-1000
ティー	-1001
年まで	-1002
物の	-1003
労働	-1004
わる	-1005
などで	-1006
市の	-1007
新聞	-1008
テル	-1009
▁l	-1010
年は	-1011
学生	-1012
ドラマ	-1013
すべて	-1014
地に	-1015
するが	-1016
を示	-1017
クラブ	-1018
国家	-1019
引退	-1020
セル	-1021
入り	-1022
ハー	-1023
運営	-1024
を獲得	-1025
ッツ	-1026
予定	-1027
としている	-1028
に至	-1029
サービ	-1030
展開	-1031
数は	-1032
様々な	-1033
インド	-1034
プリ	-1035
ed	-1036
デザイン	-1037
時点	-1038
キング	-1039
レース	-1040
35	-1041
ディア	-1042
を除	-1043
専門	-1044
公式	-1045
に就任	-1046
警察	-1047
変化	-1048
整備	-1049
ポーツ	-1050
のために	-1051
の上	-1052
ビル	-1053
ことができる	-1054
比較	-1055
かれた	-1056
ひと	-1057
になって	-1058
いずれ	-1059
ジャン	-1060
これを	-1061
オリン	-1062
さん	-1063
完成	-1064
社の	-1065
飛行	-1066
ギー	-1067
id	-1068
北海道	-1069
協会	-1070
プレ	-1071
朝鮮	-1072
わった	-1073
小説	-1074
バンド	-1075
教会	-1076
ゅう	-1077
高速	-1078
距離	-1079
大戦	-1080
作曲	-1081
支配	-1082
以上の	-1083
の後	-1084
bs	-1085
述べ	-1086
国民	-1087
公園	-1088
,000	-1089
ければ	-1090
メー	-1091
環境	-1092
に向	-1093
、196	-1094
番号	-1095
▁同年	-1096
ヤー	-1097
工業	-1098
出来	-1099
を含む	-1100
結婚	-1101
表示	-1102
出身の	-1103
指導	-1104
ライン	-1105
スが	-1106
エンジン	-1107
を取り	-1108
輸送	-1109
イド	-1110
ブリ	-1111
決勝	-1112
事務	-1113
ing	-1114
自治	-1115
いの	-1116
死去	-1117
提供	-1118
が発	-1119
同様	-1120
の中で	-1121
かか	-1122
まる	-1123
にあた	-1124
やす	-1125
を開始	-1126
タイトル	-1127
、4	-1128
フリー	-1129
データ	-1130
期間	-1131
スポーツ	-1132
認め	-1133
宇宙	-1134
名称	-1135
経営	-1136
どう	-1137
科学	-1138
ig	-1139
総合	-1140
ウォ	-1141
最初の	-1142
ピック	-1143
じめ	-1144
統領	-1145
運用	-1146
られていた	-1147
打ち	-1148
当初は	-1149
に基	-1150
非常に	-1151
立て	-1152
状況	-1153
▁2007	-1154
▁そのため	-1155
こともある	-1156
ストラ	-1157
出した	-1158
かな	-1159
方式	-1160
ジー	-1161
の発	-1162
メート	-1163
共和国	-1164
▁195	-1165
一方	-1166
裁判	-1167
を取	-1168
自然	-1169
見られる	-1170
ディー	-1171
広島	-1172
会議	-1173
指揮	-1174
リリー	-1175
を目	-1176
電気	-1177
の戦	-1178
ウム	-1179
強い	-1180
有名	-1181
ウル	-1182
ur	-1183
装置	-1184
48	-1185
定の	-1186
表現	-1187
ノー	-1188
由来	-1189
▁中	-1190
銀行	-1191
に伴い	-1192
サッカー	-1193
ユニ	-1194
舞台	-1195
言語	-1196
大な	-1197
連邦	-1198
のうち	-1199
はこの	-1200
民主	-1201
区間	-1202
女子	-1203
はその	-1204
事を	-1205
当た	-1206
側の	-1207
言葉	-1208
パイ	-1209
含ま	-1210
に基づ	-1211
演奏	-1212
共同	-1213
わず	-1214
と思	-1215
▁2006	-1216
相手	-1217
種類	-1218
カップ	-1219
形成	-1220
の下	-1221
合併	-1222
人間	-1223
制度	-1224
小さ	-1225
ii	-1226
ミュー	-1227
支援	-1228
mm	-1229
団体	-1230
実際	-1231
性を	-1232
人を	-1233
空港	-1234
産業	-1235
などに	-1236
立ち	-1237
だったが	-1238
ズの	-1239
ow	-1240
フレ	-1241
せず	-1242
トロ	-1243
▁2008	-1244
型の	-1245
ニング	-1246
国道	-1247
性の	-1248
大臣	-1249
形で	-1250
36	-1251
いている	-1252
なければ	-1253
ec	-1254
の地	-1255
作戦	-1256
スタン	-1257
したもの	-1258
したため	-1259
よく	-1260
の子	-1261
90	-1262
▁4	-1263
にあった	-1264
以外の	-1265
付近	-1266
批判	-1267
に参加	-1268
製品	-1269
一部	-1270
名を	-1271
成立	-1272
ap	-1273
ッグ	-1274
行政	-1275
試験	-1276
せん	-1277
程度	-1278
スーパー	-1279
は大	-1280
出し	-1281
受け	-1282
性が	-1283
中で	-1284
れていた	-1285
ミー	-1286
込み	-1287
一の	-1288
38	-1289
195	-1290
44	-1291
持ち	-1292
を中心に	-1293
ベース	-1294
ポン	-1295
装備	-1296
行動	-1297
県道	-1298
としても	-1299
通信	-1300
登場する	-1301
らない	-1302
オープ	-1303
とう	-1304
に位置	-1305
いが	-1306
競技	-1307
と同様	-1308
im	-1309
これは	-1310
に改	-1311
発売された	-1312
上が	-1313
主張	-1314
32	-1315
レク	-1316
反対	-1317
37	-1318
ラム	-1319
ad	-1320
例えば	-1321
わた	-1322
条件	-1323
アフ	-1324
ディング	-1325
and	-1326
ゆる	-1327
平均	-1328
候補	-1329
だけで	-1330
を受けて	-1331
大統領	-1332
iv	-1333
艦隊	-1334
系の	-1335
しまった	-1336
オリンピック	-1337
建築	-1338
らが	-1339
次世界	-1340
直接	-1341
対応	-1342
せる	-1343
企画	-1344
小学校	-1345
od	-1346
」、	-1347
登録	-1348
em	-1349
効果	-1350
、5	-1351
のち	-1352
九州	-1353
方向	-1354
▁v	-1355
現代	-1356
競馬	-1357
かい	-1358
イング	-1359
クス	-1360
政権	-1361
.5	-1362
アジア	-1363
47	-1364
が進	-1365
シャル	-1366
ことがある	-1367
月から	-1368
フル	-1369
出版	-1370
呼ば	-1371
をつ	-1372
物語	-1373
上で	-1374
を有	-1375
以前	-1376
陸軍	-1377
りに	-1378
掲載	-1379
以降は	-1380
確認	-1381
者を	-1382
事実	-1383
政策	-1384
復帰	-1385
生まれ	-1386
ヨーク	-1387
を始	-1388
ライブ	-1389
次世界大戦	-1390
▁6	-1391
いわ	-1392
正式	-1393
もあり	-1394
工場	-1395
普通	-1396
関連	-1397
をは	-1398
チュ	-1399
に従	-1400
時代に	-1401
ムー	-1402
開業	-1403
ダル	-1404
対戦	-1405
中学校	-1406
じる	-1407
せた	-1408
▁前	-1409
キャン	-1410
33	-1411
リリース	-1412
、195	-1413
のある	-1414
点を	-1415
々の	-1416
サイト	-1417
ピー	-1418
に変更	-1419
住民	-1420
もと	-1421
体は	-1422
観光	-1423
移動	-1424
が多く	-1425
古屋	-1426
拡大	-1427
地下	-1428
上に	-1429
長の	-1430
▁カ	-1431
ent	-1432
知られる	-1433
を行い	-1434
保護	-1435
福岡	-1436
記述	-1437
スペイン	-1438
に進	-1439
はない	-1440
▁2005	-1441
事故	-1442
以来	-1443
繰り	-1444
んでいる	-1445
込ま	-1446
ピュー	-1447
アメリカ合衆国	-1448
したり	-1449
ation	-1450
ールの	-1451
34	-1452
地球	-1453
車の	-1454
するなど	-1455
を務めた	-1456
に属	-1457
にして	-1458
能力	-1459
39	-1460
太郎	-1461
法人	-1462
連載	-1463
ギュ	-1464
後半	-1465
」、「	-1466
紹介	-1467
系統	-1468
かり	-1469
撮影	-1470
を参照	-1471
ズム	-1472
司令	-1473
っても	-1474
2000	-1475
メートル	-1476
を発表	-1477
神社	-1478
▁全	-1479
初代	-1480
メーカー	-1481
内閣	-1482
42	-1483
を表	-1484
化した	-1485
系列	-1486
文学	-1487
に戻	-1488
支持	-1489
増加	-1490
マーク	-1491
イベ	-1492
県の	-1493
続き	-1494
新しい	-1495
▁of	-1496
▁元	-1497
46	-1498
のか	-1499
子供	-1500
報告	-1501
▁5	-1502
アップ	-1503
は一	-1504
▁と	-1505
機の	-1506
ベン	-1507
(15	-1508
ラス	-1509
写真	-1510
ワールド	-1511
43	-1512
初期	-1513
41	-1514
名古屋	-1515
によると	-1516
過去	-1517
のこと	-1518
つつ	-1519
議院	-1520
近く	-1521
ならない	-1522
▁2010	-1523
▁2009	-1524
移籍	-1525
フォー	-1526
配置	-1527
広く	-1528
とされている	-1529
規定	-1530
行為	-1531
そこ	-1532
丁目	-1533
成績	-1534
いだ	-1535
クリ	-1536
fc	-1537
トー	-1538
によれば	-1539
標準	-1540
ヴォ	-1541
ポート	-1542
ウンド	-1543
が必要	-1544
に関して	-1545
hk	-1546
体が	-1547
▁が	-1548
書き	-1549
かに	-1550
▁翌	-1551
チャー	-1552
▁特に	-1553
の長	-1554
近い	-1555
するために	-1556
続け	-1557
雑誌	-1558
ピア	-1559
用いられる	-1560
そして	-1561
ミュージ	-1562
追加	-1563
最初	-1564
劇場	-1565
ごと	-1566
体を	-1567
現在は	-1568
多数	-1569
..	-1570
事が	-1571
コンピュー	-1572
比べ	-1573
次の	-1574
横浜	-1575
らく	-1576
子が	-1577
地を	-1578
店舗	-1579
ことに	-1580
ライト	-1581
▁j	-1582
▁マ	-1583
方の	-1584
ファー	-1585
クレ	-1586
ut	-1587
間で	-1588
トゥ	-1589
軍は	-1590
ia	-1591
所の	-1592
sp	-1593
業務	-1594
プレー	-1595
内で	-1596
条約	-1597
▁オ	-1598
重要な	-1599
代目	-1600
大正	-1601
に選	-1602
それを	-1603
原因	-1604
部は	-1605
最後の	-1606
島の	-1607
を担当	-1608
("	-1609
▁東	-1610
を受ける	-1611
を記録	-1612
▁近	-1613
を受賞	-1614
カリ	-1615
の実	-1616
ir	-1617
タイプ	-1618
▁エ	-1619
ナン	-1620
されていない	-1621
500	-1622
定義	-1623
世の	-1624
cd	-1625
いを	-1626
が設置	-1627
2007	-1628
統合	-1629
49	-1630
改正	-1631
ウェア	-1632
トップ	-1633
メイン	-1634
しよう	-1635
下の	-1636
軍事	-1637
少年	-1638
)・	-1639
ことが多い	-1640
商品	-1641
▁上	-1642
勝ち	-1643
語の	-1644
不明	-1645
op	-1646
ワン	-1647
められた	-1648
▁k	-1649
トラン	-1650
部門	-1651
彼の	-1652
細胞	-1653
分野	-1654
ニューヨーク	-1655
サービス	-1656
千葉	-1657
は以下の	-1658
側に	-1659
独自	-1660
ip	-1661
少なく	-1662
にとって	-1663
ッジ	-1664
太平	-1665
彼女	-1666
(16	-1667
動物	-1668
が行われた	-1669
と称	-1670
台湾	-1671
誕生	-1672
美術	-1673
を求	-1674
と呼ぶ	-1675
ワーク	-1676
いずれも	-1677
▁新	-1678
障害	-1679
ギリ	-1680
、6	-1681
ot	-1682
をと	-1683
となって	-1684
を継	-1685
ルス	-1686
2006	-1687
作の	-1688
できた	-1689
ケー	-1690
韓国	-1691
制御	-1692
くる	-1693
イベント	-1694
ウェー	-1695
電話	-1696
orm	-1697
▁主	-1698
人に	-1699
市場	-1700
を利用	-1701
革命	-1702
族の	-1703
いなかった	-1704
ピン	-1705
元年	-1706
設け	-1707
コース	-1708
地上	-1709
することで	-1710
の手	-1711
法律	-1712
アラ	-1713
でもある	-1714
に出場	-1715
▁7	-1716
氏の	-1717
までに	-1718
バラ	-1719
プログラ	-1720
発展	-1721
プト	-1722
統一	-1723
パス	-1724
キシ	-1725
処理	-1726
ないため	-1727
しくは	-1728
ファイ	-1729
フロ	-1730
安定	-1731
ようになる	-1732
分の	-1733
方が	-1734
理論	-1735
していない	-1736
デュー	-1737
少ない	-1738
編集	-1739
あまり	-1740
fa	-1741
パリ	-1742
力の	-1743
にかけて	-1744
将軍	-1745
um	-1746
することを	-1747
の中心	-1748
えている	-1749
ソ連	-1750
別の	-1751
以後	-1752
説明	-1753
アウ	-1754
関東	-1755
▁2011	-1756
の第	-1757
経験	-1758
競走	-1759
▁こう	-1760
えられた	-1761
を挙げ	-1762
めている	-1763
ag	-1764
放送された	-1765
の影響	-1766
ゴール	-1767
ルム	-1768
んな	-1769
地元	-1770
▁長	-1771
映像	-1772
タイム	-1773
が発生	-1774
時には	-1775
わけ	-1776
ちゃ	-1777
ホール	-1778
ものが	-1779
もあった	-1780
者に	-1781
メージ	-1782
▁8	-1783
速度	-1784
本の	-1785
ナイ	-1786
種の	-1787
自身の	-1788
わらず	-1789
▁e	-1790
イント	-1791
幕府	-1792
かれている	-1793
反応	-1794
会長	-1795
病院	-1796
述の	-1797
発見	-1798
いう	-1799
芸術	-1800
を採用	-1801
外国	-1802
』『	-1803
位の	-1804
行き	-1805
チェン	-1806
明らか	-1807
生まれた	-1808
を持ち	-1809
ティング	-1810
法の	-1811
接続	-1812
歳の	-1813
ルド	-1814
を引き	-1815
性能	-1816
選択	-1817
高く	-1818
oc	-1819
セント	-1820
2008	-1821
バック	-1822
数が	-1823
俳優	-1824
電車	-1825
人公	-1826
▁2004	-1827
ブランド	-1828
安全	-1829
時は	-1830
ペン	-1831
に終	-1832
を置	-1833
万円	-1834
に転	-1835
の前	-1836
を残	-1837
精神	-1838
オリジ	-1839
たい	-1840
▁も	-1841
すぐ	-1842
▁かつて	-1843
破壊	-1844
▁17	-1845
」。	-1846
ひとつ	-1847
続く	-1848
を生	-1849
々に	-1850
bc	-1851
コンピュータ	-1852
電子	-1853
レーション	-1854
するという	-1855
川の	-1856
ロンド	-1857
市民	-1858
フラ	-1859
▁in	-1860
が生	-1861
を目指	-1862
キュ	-1863
▁小	-1864
av	-1865
▁これらの	-1866
、7	-1867
アメリカの	-1868
要素	-1869
実現	-1870
可能な	-1871
nhk	-1872
を開	-1873
▁このため	-1874
生物	-1875
ちな	-1876
州の	-1877
モー	-1878
ゴン	-1879
伝統	-1880
県立	-1881
制限	-1882
▁ス	-1883
男性	-1884
いくつか	-1885
被害	-1886
体制	-1887
に所属	-1888
記の	-1889
流れ	-1890
力が	-1891
共通	-1892
んでいた	-1893
宗教	-1894
▁the	-1895
ヒット	-1896
派の	-1897
称は	-1898
もので	-1899
ブレ	-1900
シャー	-1901
国立	-1902
太平洋	-1903
中継	-1904
人民	-1905
減少	-1906
ガル	-1907
-1	-1908
維持	-1909
専用	-1910
アフリカ	-1911
オープン	-1912
トレ	-1913
これらの	-1914
あって	-1915
ミニ	-1916
名が	-1917
他に	-1918
旅客	-1919
▁2012	-1920
キン	-1921
を起こ	-1922
かれ	-1923
(19	-1924
防衛	-1925
▁10	-1926
復活	-1927
朝日	-1928
、"	-1929
傾向	-1930
皇帝	-1931
マス	-1932
カナ	-1933
テーマ	-1934
▁北	-1935
しょう	-1936
イズ	-1937
子は	-1938
に至る	-1939
チン	-1940
相当	-1941
派遣	-1942
成長	-1943
そのまま	-1944
記載	-1945
のである	-1946
工事	-1947
▁天	-1948
達成	-1949
メディア	-1950
まだ	-1951
セット	-1952
を行っている	-1953
2005	-1954
形態	-1955
追い	-1956
個人	-1957
さま	-1958
ベスト	-1959
作業	-1960
海外	-1961
リスの	-1962
色の	-1963
に任	-1964
▁9	-1965
がない	-1966
ロード	-1967
現役	-1968
基準	-1969
付き	-1970
自分の	-1971
ゴル	-1972
作家	-1973
チョ	-1974
が主	-1975
をもって	-1976
されていたが	-1977
をはじめ	-1978
グレ	-1979
デジ	-1980
古代	-1981
を結ぶ	-1982
学の	-1983
▁山	-1984
本線	-1985
強く	-1986
かれる	-1987
キリスト	-1988
交換	-1989
であると	-1990
役割	-1991
ギャ	-1992
機構	-1993
軌道	-1994
、8	-1995
クション	-1996
ようになり	-1997
神戸	-1998
のア	-1999
所在	-2000
に応	-2001
べき	-2002
ものは	-2003
が一	-2004
仕様	-2005
ケン	-2006
コーチ	-2007
なっている	-2008
▁2000	-2009
使われる	-2010
所有	-2011
発行	-2012
レコード	-2013
式の	-2014
日まで	-2015
ula	-2016
を描	-2017
ボン	-2018
指摘	-2019
購入	-2020
スキー	-2021
出す	-2022
1,	-2023
要求	-2024
を指す	-2025
温泉	-2026
いわゆる	-2027
改造	-2028
は無	-2029
改革	-2030
をする	-2031
乗車	-2032
、10	-2033
市立	-2034
いていた	-2035
詳細	-2036
が存在	-2037
商業	-2038
建て	-2039
ことになる	-2040
となっていた	-2041
サル	-2042
藩主	-2043
範囲	-2044
限り	-2045
ミュ	-2046
沖縄	-2047
メラ	-2048
▁戦	-2049
デオ	-2050
ステージ	-2051
プロデュー	-2052
禁止	-2053
兄弟	-2054
とその	-2055
においても	-2056
名前	-2057
単位	-2058
に置	-2059
のための	-2060
住宅	-2061
共産	-2062
大学の	-2063
(17	-2064
を迎	-2065
げた	-2066
クライ	-2067
貢献	-2068
ッション	-2069
紀元	-2070
結成	-2071
)3	-2072
料理	-2073
民族	-2074
しばしば	-2075
駆逐	-2076
違い	-2077
▁高	-2078
ニック	-2079
限定	-2080
めていた	-2081
組合	-2082
ユダ	-2083
まず	-2084
げる	-2085
を占	-2086
代わり	-2087
停車	-2088
戦の	-2089
投手	-2090
55	-2091
集団	-2092
をした	-2093
女優	-2094
パート	-2095
しているが	-2096
▁三	-2097
ov	-2098
対立	-2099
の場合	-2100
人々	-2101
▁r	-2102
首都	-2103
にあたる	-2104
主要	-2105
楽曲	-2106
原作	-2107
の高	-2108
行われる	-2109
読み	-2110
替え	-2111
なか	-2112
が大	-2113
れない	-2114
党の	-2115
ネス	-2116
▁2013	-2117
判断	-2118
に対応	-2119
年頃	-2120
ストー	-2121
基礎	-2122
ラル	-2123
アナウン	-2124
分類	-2125
創設	-2126
ジェクト	-2127
比較的	-2128
王国	-2129
を超	-2130
段階	-2131
富士	-2132
後も	-2133
まと	-2134
を一	-2135
報道	-2136
とも呼ば	-2137
困難	-2138
ormula	-2139
合わせて	-2140
呼び	-2141
が始	-2142
自ら	-2143
食べ	-2144
しなかった	-2145
が開	-2146
▁st	-2147
を示す	-2148
を手	-2149
ミン	-2150
期に	-2151
可能である	-2152
ネルギー	-2153
川県	-2154
複数の	-2155
全ての	-2156
連絡	-2157
社長	-2158
停止	-2159
してきた	-2160
ul	-2161
普及	-2162
レギュ	-2163
地で	-2164
アド	-2165
実験	-2166
量の	-2167
関西	-2168
おらず	-2169
年より	-2170
場の	-2171
▁例えば	-2172
オブ	-2173
ユダヤ	-2174
ブルク	-2175
▁そこ	-2176
きっ	-2177
同盟	-2178
ポイント	-2179
最大の	-2180
▁2014	-2181
塁打	-2182
ニュース	-2183
コーナー	-2184
新たな	-2185
落ち	-2186
行う	-2187
を図	-2188
を加	-2189
彼は	-2190
失敗	-2191
交差	-2192
化学	-2193
ak	-2194
ランダ	-2195
出された	-2196
面積	-2197
ほう	-2198
になると	-2199
隣接	-2200
特殊	-2201
エア	-2202
命令	-2203
300	-2204
.0	-2205
レベル	-2206
ントン	-2207
南部	-2208
エネルギー	-2209
▁2003	-2210
なし	-2211
協力	-2212
機器	-2213
を集	-2214
機械	-2215
知られている	-2216
しても	-2217
動き	-2218
死亡	-2219
を主	-2220
参戦	-2221
は全	-2222
スタジオ	-2223
家族	-2224
えられる	-2225
形の	-2226
ネー	-2227
王座	-2228
解散	-2229
仙台	-2230
東北	-2231
欧州	-2232
を決	-2233
イメージ	-2234
オス	-2235
ヘン	-2236
バッ	-2237
2010	-2238
ても	-2239
リエ	-2240
ss	-2241
地は	-2242
首相	-2243
発電	-2244
パラ	-2245
なども	-2246
毎年	-2247
貨物	-2248
フジ	-2249
大阪府	-2250
▁2015	-2251
を果たした	-2252
史上	-2253
時点で	-2254
かん	-2255
ます	-2256
▁2017	-2257
▁駅	-2258
可能性	-2259
責任	-2260
リーン	-2261
神奈	-2262
2009	-2263
ルート	-2264
ことになった	-2265
の意	-2266
イギリスの	-2267
植物	-2268
スケ	-2269
確保	-2270
を送	-2271
線が	-2272
▁西	-2273
操作	-2274
憲法	-2275
ブレー	-2276
大陸	-2277
ba	-2278
からも	-2279
と述べ	-2280
オフ	-2281
事務所	-2282
られており	-2283
一部の	-2284
面に	-2285
ダイヤ	-2286
なわ	-2287
)4	-2288
▁2016	-2289
定期	-2290
分離	-2291
者として	-2292
対策	-2293
延長	-2294
子を	-2295
生徒	-2296
徳川	-2297
特急	-2298
異なり	-2299
思想	-2300
歳で	-2301
スティ	-2302
阪神	-2303
が見	-2304
オール	-2305
概念	-2306
わって	-2307
連盟	-2308
人で	-2309
2004	-2310
歌手	-2311
賞を受賞	-2312
せて	-2313
、2007	-2314
強化	-2315
資料	-2316
ットの	-2317
もしくは	-2318
グラン	-2319
士の	-2320
新たに	-2321
本社	-2322
▁を	-2323
宣言	-2324
町の	-2325
することは	-2326
ビン	-2327
リック	-2328
▁12	-2329
会の	-2330
▁ここ	-2331
(1	-2332
ストン	-2333
ワード	-2334
ツアー	-2335
惑星	-2336
オリジナル	-2337
計算	-2338
ガス	-2339
レギュラー	-2340
けん	-2341
ワイ	-2342
、2006	-2343
開催された	-2344
ログ	-2345
プログラム	-2346
山の	-2347
込む	-2348
、9	-2349
に位置する	-2350
拠点	-2351
、)	-2352
場で	-2353
機に	-2354
代の	-2355
権を	-2356
▁」	-2357
愛知	-2358
ボル	-2359
当駅	-2360
ce	-2361
既に	-2362
区別	-2363
ter	-2364
▁当時	-2365
シル	-2366
刊行	-2367
道の	-2368
することができる	-2369
すれば	-2370
デジタル	-2371
員の	-2372
年ぶ	-2373
広が	-2374
ケース	-2375
りを	-2376
建造	-2377
イー	-2378
医療	-2379
のに	-2380
は日本	-2381
▁後	-2382
ための	-2383
価格	-2384
に出演	-2385
アンド	-2386
クー	-2387
観測	-2388
ロス	-2389
交流	-2390
同時に	-2391
紀元前	-2392
文書	-2393
グリ	-2394
新潟	-2395
に見	-2396
vd	-2397
フォル	-2398
アの	-2399
ナム	-2400
おお	-2401
▁だが	-2402
アカ	-2403
更に	-2404
しながら	-2405
ue	-2406
を意味	-2407
長い	-2408
▁※	-2409
通称	-2410
クラス	-2411
農業	-2412
太陽	-2413
ビデオ	-2414
線を	-2415
ドリ	-2416
ており	-2417
多かった	-2418
みに	-2419
意識	-2420
学園	-2421
バート	-2422
投票	-2423
いち	-2424
▁現在は	-2425
を解	-2426
▁16	-2427
と言う	-2428
繰り返	-2429
所に	-2430
プロ野球	-2431
長は	-2432
を搭載	-2433
と見	-2434
公演	-2435
やま	-2436
本塁打	-2437
江戸時代	-2438
が存在する	-2439
ツィ	-2440
なわち	-2441
は以下の通り	-2442
すなわち	-2443
ホテル	-2444
を収	-2445
コロ	-2446
自己	-2447
発表された	-2448
リート	-2449
行する	-2450
市に	-2451
チャンピ	-2452
▁一般	-2453
75	-2454
注目	-2455
際には	-2456
たら	-2457
▁2002	-2458
員が	-2459
ホー	-2460
家庭	-2461
球団	-2462
bo	-2463
ズは	-2464
の間	-2465
▁明治	-2466
全体	-2467
海岸	-2468
レンジ	-2469
ゲン	-2470
受賞	-2471
スタイル	-2472
たちは	-2473
本部	-2474
静岡	-2475
なくなった	-2476
保険	-2477
南北	-2478
生の	-2479
ストリア	-2480
ゼン	-2481
大型	-2482
▁父	-2483
とみ	-2484
ind	-2485
曜日	-2486
物を	-2487
チュー	-2488
ロンドン	-2489
化された	-2490
テスト	-2491
信号	-2492
に変	-2493
エンジ	-2494
ay	-2495
ミサ	-2496
カラ	-2497
供給	-2498
ったが	-2499
埼玉	-2500
が残	-2501
セス	-2502
回転	-2503
きっかけ	-2504
保存	-2505
危険	-2506
を進	-2507
生まれる	-2508
図書	-2509
訓練	-2510
国鉄	-2511
ニュ	-2512
するもの	-2513
1000	-2514
場合もある	-2515
到着	-2516
リティ	-2517
設備	-2518
オーストラ	-2519
近代	-2520
-0	-2521
長官	-2522
が入	-2523
部屋	-2524
ジョージ	-2525
しゃ	-2526
に当た	-2527
フォン	-2528
著作	-2529
期待	-2530
があるが	-2531
製の	-2532
クル	-2533
ドゥ	-2534
以降の	-2535
▁日本では	-2536
山口	-2537
急行	-2538
当て	-2539
と考えられている	-2540
エリア	-2541
イングランド	-2542
に敗	-2543
市街	-2544
トリック	-2545
かう	-2546
結局	-2547
オーストラリア	-2548
オル	-2549
えない	-2550
一方で	-2551
チー	-2552
ごとに	-2553
原則	-2554
ヒト	-2555
インタ	-2556
ケル	-2557
金属	-2558
ページ	-2559
トラック	-2560
、2008	-2561
多数の	-2562
推進	-2563
領域	-2564
とされた	-2565
sh	-2566
できなかった	-2567
ノン	-2568
のほか	-2569
度は	-2570
資格	-2571
衆議院	-2572
ポール	-2573
向上	-2574
フランスの	-2575
によっては	-2576
るが	-2577
実際に	-2578
メイ	-2579
kg	-2580
65	-2581
自治体	-2582
▁旧	-2583
しの	-2584
活動を	-2585
に近い	-2586
スタート	-2587
ポーランド	-2588
:00	-2589
原子	-2590
に由来	-2591
博士	-2592
制定	-2593
▁2001	-2594
しん	-2595
ok	-2596
第三	-2597
』、『	-2598
人である	-2599
力は	-2600
ps	-2601
シティ	-2602
位を	-2603
だけでなく	-2604
が無	-2605
形状	-2606
取引	-2607
方針	-2608
治療	-2609
コムー	-2610
改良	-2611
もう	-2612
チャンピオン	-2613
ごう	-2614
ポリ	-2615
やすい	-2616
半島	-2617
初期の	-2618
とされ	-2619
ie	-2620
研究所	-2621
コムーネ	-2622
物質	-2623
解説	-2624
目に	-2625
ッセ	-2626
従来の	-2627
なければならない	-2628
更新	-2629
立場	-2630
作用	-2631
だと	-2632
適用	-2633
についても	-2634
少女	-2635
回の	-2636
プロレス	-2637
十分	-2638
息子	-2639
込んだ	-2640
キリスト教	-2641
生き	-2642
▁東京	-2643
ph	-2644
意見	-2645
ct	-2646
アナウンサー	-2647
が起こ	-2648
2003	-2649
スピ	-2650
テク	-2651
市内	-2652
og	-2653
必ず	-2654
エー	-2655
資金	-2656
の	-2657
、	-2658
▁	-2659
に	-2660
る	-2661
。	-2662
た	-2663
は	-2664
と	-2665
ー	-2666
を	-2667
し	-2668
て	-2669
で	-2670
い	-2671
が	-2672
ン	-2673
れ	-2674
1	-2675
な	-2676
年	-2677
0	-2678
っ	-2679
ス	-2680
2	-2681
ら	-2682
か	-2683
あ	-2684
ル	-2685
)	-2686
(	-2687
さ	-2688
も	-2689
り	-2690
こ	-2691
・	-2692
ト	-2693
す	-2694
イ	-2695
リ	-2696
9	-2697
ア	-2698
ラ	-2699
う	-2700
日	-2701
ッ	-2702
ま	-2703
よ	-2704
ク	-2705
「	-2706
」	-2707
3	-2708
大	-2709
ド	-2710
く	-2711
シ	-2712
め	-2713
a	-2714
5	-2715
月	-2716
4	-2717
タ	-2718
8	-2719
き	-2720
フ	-2721
ロ	-2722
e	-2723
本	-2724
そ	-2725
レ	-2726
6	-2727
人	-2728
7	-2729
け	-2730
ジ	-2731
カ	-2732
i	-2733
国	-2734
や	-2735
お	-2736
中	-2737
ど	-2738
一	-2739
行	-2740
s	-2741
o	-2742
ム	-2743
学	-2744
テ	-2745
つ	-2746
マ	-2747
プ	-2748
後	-2749
r	-2750
ィ	-2751
n	-2752
t	-2753
時	-2754
わ	-2755
出	-2756
バ	-2757
え	-2758
グ	-2759
地	-2760
コ	-2761
用	-2762
デ	-2763
c	-2764
m	-2765
上	-2766
オ	-2767
合	-2768
部	-2769
メ	-2770
発	-2771
会	-2772
場	-2773
的	-2774
戦	-2775
だ	-2776
代	-2777
作	-2778
ウ	-2779
チ	-2780
ニ	-2781
同	-2782
ん	-2783
『	-2784
』	-2785
サ	-2786
生	-2787
ュ	-2788
ブ	-2789
l	-2790
ナ	-2791
名	-2792
者	-2793
ャ	-2794
エ	-2795
間	-2796
成	-2797
-	-2798
事	-2799
ビ	-2800
定	-2801
キ	-2802
d	-2803
分	-2804
ち	-2805
市	-2806
パ	-2807
ズ	-2808
高	-2809
長	-2810
入	-2811
自	-2812
開	-2813
動	-2814
子	-2815
内	-2816
ダ	-2817
現	-2818
車	-2819
方	-2820
道	-2821
業	-2822
み	-2823
前	-2824
東	-2825
ば	-2826
以	-2827
主	-2828
手	-2829
p	-2830
せ	-2831
通	-2832
下	-2833
社	-2834
立	-2835
ェ	-2836
対	-2837
体	-2838
当	-2839
在	-2840
線	-2841
ミ	-2842
機	-2843
第	-2844
多	-2845
化	-2846
設	-2847
家	-2848
u	-2849
h	-2850
所	-2851
山	-2852
じ	-2853
新	-2854
全	-2855
世	-2856
最	-2857
b	-2858
関	-2859
軍	-2860
ョ	-2861
へ	-2862
物	-2863
数	-2864
初	-2865
目	-2866
g	-2867
表	-2868
法	-2869
性	-2870
"	-2871
セ	-2872
f	-2873
田	-2874
ハ	-2875
力	-2876
ネ	-2877
ベ	-2878
モ	-2879
県	-2880
見	-2881
記	-2882
度	-2883
実	-2884
び	-2885
ツ	-2886
ず	-2887
期	-2888
連	-2889
川	-2890
ガ	-2891
.	-2892
小	-2893
語	-2894
k	-2895
式	-2896
文	-2897
画	-2898
駅	-2899
選	-2900
ソ	-2901
和	-2902
理	-2903
位	-2904
ポ	-2905
使	-2906
政	-2907
海	-2908
公	-2909
平	-2910
教	-2911
明	-2912
北	-2913
ボ	-2914
送	-2915
置	-2916
回	-2917
島	-2918
制	-2919
形	-2920
外	-2921
特	-2922
校	-2923
組	-2924
放	-2925
ァ	-2926
野	-2927
ピ	-2928
民	-2929
品	-2930
ノ	-2931
受	-2932
結	-2933
ヴ	-2934
加	-2935
能	-2936
水	-2937
要	-2938
番	-2939
区	-2940
言	-2941
勝	-2942
ワ	-2943
元	-2944
三	-2945
原	-2946
西	-2947
京	-2948
面	-2949
神	-2950
ほ	-2951
員	-2952
点	-2953
ケ	-2954
運	-2955
活	-2956
持	-2957
取	-2958
正	-2959
v	-2960
経	-2961
電	-2962
ギ	-2963
来	-2964
治	-2965
務	-2966
続	-2967
号	-2968
身	-2969
書	-2970
げ	-2971
都	-2972
気	-2973
指	-2974
共	-2975
際	-2976
変	-2977
王	-2978
有	-2979
金	-2980
近	-2981
女	-2982
次	-2983
利	-2984
界	-2985
南	-2986
演	-2987
ペ	-2988
売	-2989
町	-2990
意	-2991
ホ	-2992
w	-2993
進	-2994
,	-2995
重	-2996
等	-2997
空	-2998
不	-2999
付	-3000
流	-3001
呼	-3002
州	-3003
知	-3004
向	-3005
路	-3006
議	-3007
型	-3008
二	-3009
ゲ	-3010
産	-3011
約	-3012
始	-3013
得	-3014
団	-3015
天	-3016
任	-3017
ザ	-3018
造	-3019
義	-3020
y	-3021
存	-3022
権	-3023
信	-3024
改	-3025
決	-3026
系	-3027
称	-3028
基	-3029
ゴ	-3030
鉄	-3031
心	-3032
交	-3033
隊	-3034
終	-3035
両	-3036
音	-3037
保	-3038
々	-3039
計	-3040
他	-3041
集	-3042
ろ	-3043
台	-3044
参	-3045
製	-3046
べ	-3047
様	-3048
ォ	-3049
建	-3050
解	-3051
相	-3052
種	-3053
楽	-3054
口	-3055
移	-3056
:	-3057
別	-3058
優	-3059
域	-3060
工	-3061
ヤ	-3062
無	-3063
直	-3064
広	-3065
転	-3066
j	-3067
側	-3068
む	-3069
備	-3070
統	-3071
録	-3072
曲	-3073
引	-3074
再	-3075
可	-3076
少	-3077
属	-3078
果	-3079
強	-3080
撃	-3081
状	-3082
登	-3083
役	-3084
説	-3085
構	-3086
安	-3087
ヒ	-3088
支	-3089
院	-3090
映	-3091
古	-3092
降	-3093
士	-3094
格	-3095
常	-3096
馬	-3097
府	-3098
装	-3099
村	-3100
彼	-3101
死	-3102
編	-3103
艦	-3104
命	-3105
球	-3106
営	-3107
城	-3108
総	-3109
由	-3110
ぶ	-3111
石	-3112
収	-3113
木	-3114
起	-3115
賞	-3116
各	-3117
伝	-3118
反	-3119
題	-3120
乗	-3121
配	-3122
止	-3123
着	-3124
朝	-3125
術	-3126
局	-3127
報	-3128
昭	-3129
試	-3130
退	-3131
調	-3132
門	-3133
問	-3134
示	-3135
類	-3136
半	-3137
先	-3138
科	-3139
官	-3140
認	-3141
話	-3142
党	-3143
判	-3144
考	-3145
武	-3146
版	-3147
論	-3148
技	-3149
土	-3150
万	-3151
応	-3152
打	-3153
領	-3154
兵	-3155
太	-3156
例	-3157
族	-3158
規	-3159
列	-3160
ユ	-3161
載	-3162
施	-3163
男	-3164
字	-3165
料	-3166
住	-3167
屋	-3168
量	-3169
x	-3170
異	-3171
条	-3172
紀	-3173
店	-3174
研	-3175
争	-3176
歌	-3177
継	-3178
管	-3179
|	-3180
光	-3181
派	-3182
宮	-3183
ヨ	-3184
戸	-3185
陸	-3186
接	-3187
色	-3188
器	-3189
限	-3190
史	-3191
速	-3192
離	-3193
ヘ	-3194
更	-3195
味	-3196
達	-3197
独	-3198
育	-3199
究	-3200
過	-3201
挙	-3202
残	-3203
含	-3204
館	-3205
単	-3206
切	-3207
予	-3208
頭	-3209
岡	-3210
導	-3211
観	-3212
態	-3213
込	-3214
/	-3215
必	-3216
親	-3217
及	-3218
件	-3219
投	-3220
阪	-3221
与	-3222
確	-3223
急	-3224
資	-3225
氏	-3226
松	-3227
影	-3228
述	-3229
攻	-3230
復	-3231
係	-3232
井	-3233
増	-3234
食	-3235
皇	-3236
率	-3237
般	-3238
質	-3239
周	-3240
園	-3241
郡	-3242
ご	-3243
競	-3244
旧	-3245
橋	-3246
米	-3247
容	-3248
情	-3249
敗	-3250
航	-3251
提	-3252
師	-3253
準	-3254
江	-3255
害	-3256
英	-3257
寺	-3258
真	-3259
級	-3260
美	-3261
防	-3262
落	-3263
白	-3264
完	-3265
船	-3266
ょ	-3267
良	-3268
歳	-3269
郎	-3270
比	-3271
商	-3272
展	-3273
ひ	-3274
走	-3275
ゼ	-3276
素	-3277
職	-3278
藤	-3279
帝	-3280
福	-3281
協	-3282
衛	-3283
葉	-3284
父	-3285
従	-3286
監	-3287
督	-3288
風	-3289
価	-3290
験	-3291
思	-3292
星	-3293
将	-3294
愛	-3295
十	-3296
程	-3297
供	-3298
ぐ	-3299
専	-3300
張	-3301
去	-3302
響	-3303
勢	-3304
担	-3305
足	-3306
河	-3307
査	-3308
象	-3309
母	-3310
港	-3311
!	-3312
催	-3313
失	-3314
ね	-3315
末	-3316
ぎ	-3317
円	-3318
修	-3319
護	-3320
御	-3321
断	-3322
帰	-3323
客	-3324
座	-3325
採	-3326
念	-3327
司	-3328
追	-3329
廃	-3330
低	-3331
帯	-3332
非	-3333
四	-3334
守	-3335
図	-3336
洋	-3337
衆	-3338
室	-3339
感	-3340
谷	-3341
済	-3342
告	-3343
首	-3344
個	-3345
評	-3346
仕	-3347
視	-3348
崎	-3349
令	-3350
歴	-3351
頃	-3352
細	-3353
割	-3354
%	-3355
差	-3356
破	-3357
佐	-3358
消	-3359
除	-3360
省	-3361
企	-3362
渡	-3363
換	-3364
今	-3365
補	-3366
ゆ	-3367
就	-3368
殺	-3369
吉	-3370
藩	-3371
千	-3372
想	-3373
=	-3374
境	-3375
籍	-3376
創	-3377
宗	-3378
難	-3379
翌	-3380
了	-3381
助	-3382
闘	-3383
求	-3384
飛	-3385
ぞ	-3386
標	-3387
波	-3388
模	-3389
づ	-3390
劇	-3391
横	-3392
z	-3393
委	-3394
津	-3395
火	-3396
源	-3397
然	-3398
積	-3399
段	-3400
病	-3401
央	-3402
整	-3403
階	-3404
好	-3405
販	-3406
根	-3407
ぼ	-3408
検	-3409
芸	-3410
極	-3411
青	-3412
五	-3413
諸	-3414
警	-3415
伊	-3416
声	-3417
右	-3418
夫	-3419
左	-3420
株	-3421
算	-3422
留	-3423
辺	-3424
満	-3425
幕	-3426
築	-3427
案	-3428
照	-3429
違	-3430
策	-3431
圧	-3432
銀	-3433
久	-3434
織	-3435
ヌ	-3436
複	-3437
減	-3438
効	-3439
推	-3440
略	-3441
八	-3442
輸	-3443
遺	-3444
聞	-3445
停	-3446
興	-3447
像	-3448
環	-3449
黒	-3450
獲	-3451
証	-3452
負	-3453
花	-3454
処	-3455
察	-3456
越	-3457
臣	-3458
伴	-3459
医	-3460
材	-3461
描	-3462
著	-3463
板	-3464
赤	-3465
悪	-3466
街	-3467
端	-3468
卒	-3469
働	-3470
清	-3471
功	-3472
弟	-3473
居	-3474
授	-3475
介	-3476
徳	-3477
何	-3478
射	-3479
囲	-3480
刊	-3481
毎	-3482
深	-3483
弾	-3484
援	-3485
徴	-3486
宇	-3487
併	-3488
席	-3489
誌	-3490
為	-3491
奏	-3492
博	-3493
尾	-3494
舞	-3495
聖	-3496
農	-3497
巻	-3498
短	-3499
ゥ	-3500
注	-3501
富	-3502
温	-3503
砲	-3504
拠	-3505
沢	-3506
若	-3507
旅	-3508
突	-3509
植	-3510
浜	-3511
習	-3512
岸	-3513
薬	-3514
裁	-3515
跡	-3516
寄	-3517
読	-3518
早	-3519
因	-3520
未	-3521
識	-3522
養	-3523
返	-3524
婚	-3525
甲	-3526
躍	-3527
乱	-3528
永	-3529
盟	-3530
豊	-3531
普	-3532
角	-3533
延	-3534
抗	-3535
扱	-3536
財	-3537
写	-3538
超	-3539
春	-3540
林	-3541
振	-3542
値	-3543
血	-3544
望	-3545
群	-3546
夜	-3547
蔵	-3548
労	-3549
便	-3550
ゃ	-3551
湾	-3552
九	-3553
森	-3554
曜	-3555
故	-3556
精	-3557
許	-3558
岩	-3559
至	-3560
替	-3561
歩	-3562
革	-3563
ふ	-3564
章	-3565
搭	-3566
志	-3567
雑	-3568
密	-3569
並	-3570
ざ	-3571
酸	-3572
適	-3573
頼	-3574
典	-3575
亡	-3576
児	-3577
秋	-3578
布	-3579
給	-3580
契	-3581
盛	-3582
秀	-3583
費	-3584
友	-3585
熱	-3586
績	-3587
順	-3588
項	-3589
陽	-3590
測	-3591
承	-3592
丸	-3593
堂	-3594
ゅ	-3595
壊	-3596
途	-3597
賀	-3598
遠	-3599
則	-3600
倉	-3601
被	-3602
紙	-3603
具	-3604
貨	-3605
候	-3606
待	-3607
週	-3608
占	-3609
泉	-3610
激	-3611
息	-3612
捕	-3613
祭	-3614
幅	-3615
揮	-3616
盤	-3617
拡	-3618
庫	-3619
ヶ	-3620
戻	-3621
駆	-3622
絶	-3623
休	-3624
節	-3625
障	-3626
景	-3627
昇	-3628
兄	-3629
敵	-3630
漫	-3631
雄	-3632
〜	-3633
爆	-3634
脱	-3635
邦	-3636
散	-3637
層	-3638
易	-3639
療	-3640
滅	-3641
抜	-3642
固	-3643
況	-3644
輪	-3645
刑	-3646
玉	-3647
掲	-3648
枚	-3649
私	-3650
華	-3651
宝	-3652
軽	-3653
姿	-3654
宅	-3655
操	-3656
詞	-3657
鳥	-3658
服	-3659
夏	-3660
庁	-3661
～	-3662
徒	-3663
印	-3664
沿	-3665
講	-3666
妻	-3667
混	-3668
ゾ	-3669
宿	-3670
奈	-3671
逆	-3672
舎	-3673
似	-3674
鮮	-3675
香	-3676
倒	-3677
坂	-3678
宣	-3679
背	-3680
練	-3681
襲	-3682
池	-3683
塁	-3684
韓	-3685
覚	-3686
忠	-3687
症	-3688
険	-3689
羽	-3690
幹	-3691
之	-3692
傷	-3693
迎	-3694
札	-3695
携	-3696
律	-3697
六	-3698
執	-3699
郷	-3700
草	-3701
仏	-3702
魔	-3703
罪	-3704
訳	-3705
閣	-3706
額	-3707
訪	-3708
百	-3709
禁	-3710
課	-3711
康	-3712
副	-3713
閉	-3714
遊	-3715
丁	-3716
掛	-3717
批	-3718
隣	-3719
巡	-3720
献	-3721
請	-3722
筆	-3723
q	-3724
欧	-3725
審	-3726
均	-3727
較	-3728
憲	-3729
互	-3730
距	-3731
仮	-3732
祖	-3733
買	-3734
老	-3735
撮	-3736
宙	-3737
岐	-3738
'	-3739
兼	-3740
敷	-3741
討	-3742
静	-3743
陣	-3744
健	-3745
災	-3746
沖	-3747
貴	-3748
娘	-3749
券	-3750
里	-3751
奪	-3752
湖	-3753
範	-3754
危	-3755
絵	-3756
弁	-3757
維	-3758
否	-3759
浦	-3760
漢	-3761
液	-3762
殿	-3763
焼	-3764
折	-3765
樹	-3766
余	-3767
詳	-3768
善	-3769
勤	-3770
逃	-3771
辞	-3772
慶	-3773
没	-3774
油	-3775
圏	-3776
銃	-3777
鹿	-3778
税	-3779
魚	-3780
栄	-3781
骨	-3782
訴	-3783
探	-3784
孫	-3785
毛	-3786
談	-3787
肉	-3788
既	-3789
臨	-3790
救	-3791
黄	-3792
瀬	-3793
騎	-3794
冷	-3795
納	-3796
侵	-3797
巨	-3798
脚	-3799
震	-3800
幼	-3801
犯	-3802
仲	-3803
核	-3804
縮	-3805
避	-3806
億	-3807
傾	-3808
締	-3809
欠	-3810
竹	-3811
房	-3812
枠	-3813
&	-3814
胞	-3815
七	-3816
片	-3817
純	-3818
撤	-3819
露	-3820
厳	-3821
染	-3822
依	-3823
票	-3824
刻	-3825
庭	-3826
押	-3827
酒	-3828
塚	-3829
聴	-3830
裏	-3831
譲	-3832
塩	-3833
到	-3834
損	-3835
免	-3836
舗	-3837
紹	-3838
_	-3839
暗	-3840
概	-3841
伸	-3842
仙	-3843
唱	-3844
幸	-3845
払	-3846
申	-3847
濃	-3848
季	-3849
潜	-3850
疑	-3851
架	-3852
軌	-3853
繰	-3854
排	-3855
願	-3856
熊	-3857
吸	-3858
苦	-3859
融	-3860
益	-3861
翼	-3862
遣	-3863
唯	-3864
喜	-3865
雷	-3866
詩	-3867
燃	-3868
択	-3869
縁	-3870
雲	-3871
困	-3872
弱	-3873
怪	-3874
旗	-3875
繁	-3876
釈	-3877
茶	-3878
→	-3879
”	-3880
縄	-3881
覧	-3882
還	-3883
遅	-3884
暴	-3885
俳	-3886
奥	-3887
惑	-3888
触	-3889
誕	-3890
隠	-3891
阿	-3892
虫	-3893
招	-3894
礼	-3895
+	-3896
儀	-3897
簡	-3898
底	-3899
摘	-3900
暦	-3901
砂	-3902
龍	-3903
霊	-3904
麻	-3905
皮	-3906
崩	-3907
君	-3908
倍	-3909
絡	-3910
誘	-3911
冬	-3912
“	-3913
仁	-3914
駐	-3915
壁	-3916
封	-3917
却	-3918
答	-3919
我	-3920
亜	-3921
摩	-3922
厚	-3923
隻	-3924
飾	-3925
征	-3926
隆	-3927
牧	-3928
雪	-3929
荷	-3930
貢	-3931
針	-3932
恐	-3933
稲	-3934
炭	-3935
雨	-3936
ぜ	-3937
踏	-3938
綱	-3939
齢	-3940
筋	-3941
軸	-3942
即	-3943
訓	-3944
貫	-3945
快	-3946
窓	-3947
顔	-3948
須	-3949
丘	-3950
責	-3951
致	-3952
※	-3953
誤	-3954
秘	-3955
冠	-3956
潟	-3957
緑	-3958
ぬ	-3959
彦	-3960
抑	-3961
寛	-3962
充	-3963
購	-3964
狭	-3965
恵	-3966
妹	-3967
吹	-3968
包	-3969
杉	-3970
束	-3971
衝	-3972
伯	-3973
豪	-3974
抱	-3975
沈	-3976
奉	-3977
伏	-3978
哲	-3979
双	-3980
飲	-3981
弘	-3982
患	-3983
逐	-3984
荒	-3985
剤	-3986
矢	-3987
鎖	-3988
脳	-3989
尊	-3990
浅	-3991
床	-3992
竜	-3993
己	-3994
脈	-3995
礎	-3996
託	-3997
覇	-3998
塔	-3999
剣	-4000
午	-4001
柄	-4002
童	-4003
沼	-4004
削	-4005
鎮	-4006
墓	-4007
縦	-4008
鶴	-4009
挑	-4010
析	-4011
署	-4012
殊	-4013
陥	-4014
轄	-4015
威	-4016
謀	-4017
干	-4018
秒	-4019
郵	-4020
恋	-4021
菌	-4022
衣	-4023
鉱	-4024
誉	-4025
笑	-4026
磁	-4027
姉	-4028
炎	-4029
募	-4030
迫	-4031
渉	-4032
希	-4033
湯	-4034
埋	-4035
奇	-4036
序	-4037
慮	-4038
浮	-4039
那	-4040
姓	-4041
索	-4042
網	-4043
刺	-4044
賛	-4045
械	-4046
?	-4047
鈴	-4048
葬	-4049
堀	-4050
夕	-4051
寿	-4052
夢	-4053
棄	-4054
掘	-4055
溶	-4056
塗	-4057
拒	-4058
幌	-4059
桜	-4060
陰	-4061
敬	-4062
殖	-4063
乳	-4064
歯	-4065
爵	-4066
頂	-4067
姫	-4068
芝	-4069
牛	-4070
貞	-4071
鎌	-4072
茂	-4073
艇	-4074
埼	-4075
微	-4076
緒	-4077
俗	-4078
戒	-4079
抵	-4080
享	-4081
毒	-4082
径	-4083
裂	-4084
該	-4085
鏡	-4086
犬	-4087
仰	-4088
廷	-4089
耐	-4090
眼	-4091
智	-4092
灯	-4093
唐	-4094
腹	-4095
刀	-4096
漁	-4097
才	-4098
卵	-4099
飯	-4100
岳	-4101
柳	-4102
李	-4103
債	-4104
婦	-4105
借	-4106
羅	-4107
遂	-4108
腕	-4109
滞	-4110
稿	-4111
郊	-4112
揚	-4113
隔	-4114
禄	-4115
獣	-4116
盗	-4117
僚	-4118
診	-4119
慣	-4120
往	-4121
杯	-4122
賃	-4123
括	-4124
痛	-4125
硬	-4126
握	-4127
雇	-4128
亀	-4129
輝	-4130
顕	-4131
箱	-4132
丹	-4133
薄	-4134
潮	-4135
梅	-4136
]	-4137
渋	-4138
詰	-4139
弦	-4140
鬼	-4141
暮	-4142
蒸	-4143
裕	-4144
[	-4145
洗	-4146
摂	-4147
阜	-4148
棋	-4149
償	-4150
又	-4151
捜	-4152
拝	-4153
銅	-4154
鳴	-4155
翻	-4156
滑	-4157
菱	-4158
柱	-4159
勧	-4160
柔	-4161
貸	-4162
如	-4163
徐	-4164
穴	-4165
晴	-4166
届	-4167
劉	-4168
駒	-4169
浴	-4170
逮	-4171
俊	-4172
顧	-4173
贈	-4174
緯	-4175
嫌	-4176
珍	-4177
彩	-4178
荘	-4179
勇	-4180
句	-4181
×	-4182
筒	-4183
培	-4184
氷	-4185
覆	-4186
繋	-4187
謝	-4188
奴	-4189
玄	-4190
怒	-4191
尚	-4192
也	-4193
随	-4194
趣	-4195
鑑	-4196
泊	-4197
○	-4198
鋼	-4199
徹	-4200
陵	-4201
豆	-4202
孝	-4203
緩	-4204
迷	-4205
枝	-4206
弥	-4207
幾	-4208
紅	-4209
僧	-4210
輩	-4211
旨	-4212
箇	-4213
狙	-4214
騒	-4215
頻	-4216
譜	-4217
侯	-4218
誰	-4219
附	-4220
墳	-4221
擁	-4222
拓	-4223
偽	-4224
緊	-4225
昌	-4226
飼	-4227
促	-4228
旬	-4229
冒	-4230
衰	-4231
晩	-4232
乾	-4233
曹	-4234
勲	-4235
斜	-4236
祝	-4237
筑	-4238
透	-4239
垣	-4240
遇	-4241
笠	-4242
需	-4243
嘉	-4244
尽	-4245
喫	-4246
扉	-4247
塞	-4248
#	-4249
旋	-4250
欲	-4251
撲	-4252
糖	-4253
斉	-4254
斎	-4255
隷	-4256
晶	-4257
誇	-4258
貿	-4259
浪	-4260
糸	-4261
妙	-4262
幡	-4263
煙	-4264
肥	-4265
浄	-4266
洞	-4267
髪	-4268
叙	-4269
看	-4270
刷	-4271
罰	-4272
寝	-4273
巣	-4274
膜	-4275
澤	-4276
貧	-4277
梨	-4278
符	-4279
菊	-4280
呂	-4281
尉	-4282
穂	-4283
拳	-4284
粉	-4285
紋	-4286
紫	-4287
偵	-4288
畑	-4289
悲	-4290
添	-4291
呉	-4292
紛	-4293
狩	-4294
庄	-4295
滝	-4296
ぱ	-4297
披	-4298
塾	-4299
傘	-4300
臓	-4301
碑	-4302
劣	-4303
峰	-4304
栽	-4305
袋	-4306
脇	-4307
茨	-4308
肩	-4309
雅	-4310
粒	-4311
泰	-4312
峡	-4313
昼	-4314
誠	-4315
恒	-4316
麗	-4317
挟	-4318
寒	-4319
奨	-4320
獄	-4321
幣	-4322
薩	-4323
憶	-4324
銭	-4325
淡	-4326
熟	-4327
棒	-4328
捨	-4329
邸	-4330
努	-4331
梁	-4332
阻	-4333
磨	-4334
卿	-4335
汚	-4336
懸	-4337
彰	-4338
脂	-4339
媒	-4340
預	-4341
稼	-4342
眠	-4343
桂	-4344
噴	-4345
°	-4346
恩	-4347
冊	-4348
踊	-4349
祥	-4350
屈	-4351
祀	-4352
遷	-4353
剛	-4354
逸	-4355
賢	-4356
栗	-4357
ぽ	-4358
胸	-4359
偏	-4360
峠	-4361
措	-4362
坊	-4363
宰	-4364
伐	-4365
灰	-4366
菜	-4367
堅	-4368
控	-4369
芳	-4370
虎	-4371
葛	-4372
偶	-4373
垂	-4374
桃	-4375
遭	-4376
陳	-4377
傍	-4378
亭	-4379
洲	-4380
挿	-4381
悩	-4382
畿	-4383
旭	-4384
妃	-4385
后	-4386
勃	-4387
耳	-4388
é	-4389
酵	-4390
疾	-4391
銘	-4392
訟	-4393
狂	-4394
吾	-4395
曽	-4396
掌	-4397
悟	-4398
旦	-4399
湿	-4400
涯	-4401
甘	-4402
帳	-4403
薦	-4404
棟	-4405
勅	-4406
浸	-4407
敏	-4408
暖	-4409
匠	-4410
軟	-4411
軒	-4412
桁	-4413
励	-4414
虐	-4415
驚	-4416
貯	-4417
幻	-4418
脅	-4419
ぷ	-4420
駿	-4421
函	-4422
彫	-4423
珠	-4424
抽	-4425
嫡	-4426
蘇	-4427
浩	-4428
蓮	-4429
召	-4430
崇	-4431
鷹	-4432
酷	-4433
栃	-4434
《	-4435
》	-4436
妖	-4437
拘	-4438
祉	-4439
蓄	-4440
忍	-4441
弓	-4442
輔	-4443
烈	-4444
泳	-4445
赴	-4446
卓	-4447
但	-4448
啓	-4449
謡	-4450
瞬	-4451
猛	-4452
斐	-4453
膨	-4454
侍	-4455
墜	-4456
;	-4457
桑	-4458
孤	-4459
揃	-4460
堤	-4461
〉	-4462
〈	-4463
昔	-4464
朱	-4465
洪	-4466
蘭	-4467
菓	-4468
魂	-4469
皆	-4470
嶋	-4471
辛	-4472
掃	-4473
牽	-4474
鼻	-4475
磐	-4476
宋	-4477
搬	-4478
腰	-4479
麦	-4480
衡	-4481
斬	-4482
牡	-4483
捉	-4484
呈	-4485
祈	-4486
郭	-4487
猫	-4488
尼	-4489
沙	-4490
盾	-4491
寸	-4492
尋	-4493
滋	-4494
懐	-4495
C	-4496
庶	-4497
禅	-4498
丈	-4499
椎	-4500
耕	-4501
鋭	-4502
晋	-4503
殻	-4504
柴	-4505
腐	-4506
朗	-4507
貝	-4508
慎	-4509
腸	-4510
秩	-4511
尿	-4512
稚	-4513
蒲	-4514
竣	-4515
祐	-4516
克	-4517
粋	-4518
釣	-4519
勘	-4520
溝	-4521
硫	-4522
盆	-4523
尻	-4524
胴	-4525
壇	-4526
賊	-4527
宏	-4528
履	-4529
―	-4530
暫	-4531
菅	-4532
陶	-4533
瑞	-4534
妨	-4535
肝	-4536
柏	-4537
肺	-4538
辰	-4539
夷	-4540
犠	-4541
舟	-4542
閥	-4543
訂	-4544
枢	-4545
肢	-4546
舶	-4547
怖	-4548
堺	-4549
剰	-4550
秦	-4551
蜂	-4552
謎	-4553
循	-4554
渓	-4555
倫	-4556
屯	-4557
昆	-4558
寮	-4559
播	-4560
揺	-4561
粘	-4562
媛	-4563
叔	-4564
咲	-4565
哨	-4566
釜	-4567
蓋	-4568
鍵	-4569
虜	-4570
魏	-4571
癌	-4572
繊	-4573
勉	-4574
孔	-4575
慢	-4576
凍	-4577
疎	-4578
燥	-4579
邪	-4580
☆	-4581
錦	-4582
稀	-4583
尺	-4584
牲	-4585
炉	-4586
虚	-4587
斗	-4588
魅	-4589
宜	-4590
霧	-4591
–	-4592
戯	-4593
乙	-4594
嵐	-4595
扇	-4596
忘	-4597
腫	-4598
雀	-4599
朽	-4600
喪	-4601
拍	-4602
泥	-4603
國	-4604
麓	-4605
准	-4606
猿	-4607
乏	-4608
猟	-4609
班	-4610
僅	-4611
絞	-4612
潤	-4613
琉	-4614
於	-4615
乃	-4616
涼	-4617
纂	-4618
籠	-4619
匹	-4620
僕	-4621
茎	-4622
篇	-4623
叩	-4624
嗣	-4625
篠	-4626
賜	-4627
芽	-4628
兆	-4629
誓	-4630
疫	-4631
綿	-4632
讃	-4633
桐	-4634
擬	-4635
畜	-4636
慰	-4637
漏	-4638
蛇	-4639
琴	-4640
褐	-4641
隅	-4642
黙	-4643
妊	-4644
巧	-4645
鉛	-4646
寧	-4647
α	-4648
洛	-4649
噂	-4650
歓	-4651
鼓	-4652
懲	-4653
殆	-4654
澄	-4655
雌	-4656
磯	-4657
謙	-4658
閲	-4659
蹴	-4660
剥	-4661
髄	-4662
唆	-4663
穏	-4664
弧	-4665
帽	-4666
慈	-4667
臭	-4668
鳳	-4669
偉	-4670
粛	-4671
鋳	-4672
萩	-4673
菩	-4674
吐	-4675
呪	-4676
嫁	-4677
践	-4678
碁	-4679
礁	-4680
貼	-4681
諾	-4682
淵	-4683
勾	-4684
刃	-4685
伎	-4686
帥	-4687
猪	-4688
瓦	-4689
砦	-4690
應	-4691
厩	-4692
惨	-4693
零	-4694
淳	-4695
糧	-4696
翔	-4697
牝	-4698
闇	-4699
羊	-4700
跳	-4701
敢	-4702
奮	-4703
忌	-4704
胆	-4705
舷	-4706
慕	-4707
汎	-4708
是	-4709
雰	-4710
賠	-4711
穀	-4712
亮	-4713
淀	-4714
幽	-4715
甥	-4716
漠	-4717
膝	-4718
趙	-4719
烏	-4720
据	-4721
遮	-4722
砕	-4723
把	-4724
佳	-4725
跨	-4726
壮	-4727
庵	-4728
遡	-4729
涙	-4730
苗	-4731
鍋	-4732
玩	-4733
焦	-4734
泣	-4735
膚	-4736
簿	-4737
壌	-4738
辻	-4739
蒙	-4740
吊	-4741
疲	-4742
累	-4743
敦	-4744
錯	-4745
胡	-4746
輌	-4747
倣	-4748
賭	-4749
楊	-4750
餌	-4751
酔	-4752
綾	-4753
駄	-4754
煮	-4755
拾	-4756
諏	-4757
墨	-4758
篤	-4759
*	-4760
汁	-4761
矛	-4762
窮	-4763
妥	-4764
俺	-4765
綴	-4766
隈	-4767
棚	-4768
鴨	-4769
傑	-4770
貌	-4771
缶	-4772
隙	-4773
岬	-4774
胤	-4775
鐘	-4776
凝	-4777
醸	-4778
舌	-4779
稽	-4780
瓶	-4781
胎	-4782
宛	-4783
汽	-4784
俵	-4785
鍛	-4786
斑	-4787
填	-4788
鯨	-4789
芦	-4790
叫	-4791
棲	-4792
槍	-4793
嘆	-4794
縛	-4795
欄	-4796
鶏	-4797
諭	-4798
倶	-4799
廉	-4800
顎	-4801
ぴ	-4802
袖	-4803
廊	-4804
曾	-4805
恭	-4806
橘	-4807
嶺	-4808
鞍	-4809
靴	-4810
擢	-4811
畳	-4812
刈	-4813
楼	-4814
遼	-4815
湘	-4816
脊	-4817
哉	-4818
裸	-4819
潰	-4820
燕	-4821
逝	-4822
娠	-4823
廻	-4824
鳩	-4825
窟	-4826
>	-4827
臼	-4828
儒	-4829
畠	-4830
頑	-4831
遍	-4832
靖	-4833
唄	-4834
粧	-4835
坪	-4836
槻	-4837
倭	-4838
窒	-4839
ヵ	-4840
肪	-4841
狼	-4842
揆	-4843
陀	-4844
豚	-4845
錬	-4846
囚	-4847
廠	-4848
肖	-4849
椅	-4850
鞭	-4851
綻	-4852
胃	-4853
樽	-4854
宴	-4855
堆	-4856
韻	-4857
蒋	-4858
骸	-4859
詠	-4860
酬	-4861
彗	-4862
戚	-4863
朴	-4864
潔	-4865
凶	-4866
股	-4867
擦	-4868
帆	-4869
挫	-4870
崖	-4871
粗	-4872
腺	-4873
抹	-4874
漂	-4875
睦	-4876
戴	-4877
惜	-4878
姻	-4879
笛	-4880
】	-4881
【	-4882
塊	-4883
袁	-4884
曳	-4885
暇	-4886
麺	-4887
詣	-4888
樺	-4889
痕	-4890
ヲ	-4891
β	-4892
悼	-4893
枯	-4894
扶	-4895
圓	-4896
婿	-4897
飢	-4898
藻	-4899
笹	-4900
昧	-4901
汲	-4902
喚	-4903
凡	-4904
\	-4905
癒	-4906
瘍	-4907
條	-4908
湧	-4909
遽	-4910
槽	-4911
赦	-4912
湊	-4913
諱	-4914
藍	-4915
頓	-4916
俣	-4917
泌	-4918
鐵	-4919
牙	-4920
喧	-4921
捧	-4922
騰	-4923
憧	-4924
曰	-4925
鷲	-4926
慌	-4927
腎	-4928
楠	-4929
挺	-4930
牟	-4931
叡	-4932
牌	-4933
聘	-4934
萌	-4935
枕	-4936
裔	-4937
爪	-4938
辱	-4939
坑	-4940
匿	-4941
耗	-4942
馴	-4943
甚	-4944
皿	-4945
凱	-4946
奔	-4947
溜	-4948
腔	-4949
圭	-4950
哀	-4951
泡	-4952
租	-4953
晃	-4954
漬	-4955
飽	-4956
悔	-4957
鉢	-4958
肌	-4959
薫	-4960
吏	-4961
哺	-4962
侶	-4963
}	-4964
殴	-4965
灘	-4966
撰	-4967
藝	-4968
霞	-4969
{	-4970
楕	-4971
灌	-4972
憂	-4973
鱗	-4974
祇	-4975
梶	-4976
凌	-4977
縫	-4978
廟	-4979
ā	-4980
<	-4981
睡	-4982
褒	-4983
窪	-4984
賑	-4985
á	-4986
酢	-4987
卑	-4988
穫	-4989
渕	-4990
癖	-4991
抄	-4992
懇	-4993
嚢	-4994
惣	-4995
賄	-4996
盲	-4997
苑	-4998
沸	-4999
俸	-5000
迦	-5001
拉	-5002
暑	-5003
閑	-5004
惧	-5005
醐	-5006
學	-5007
醍	-5008
卸	-5009
尖	-5010
獅	-5011
★	-5012
莫	-5013
挨	-5014
拶	-5015
舵	-5016
庇	-5017
鰭	-5018
ü	-5019
冥	-5020
姦	-5021
欺	-5022
栖	-5023
迅	-5024
辿	-5025
邑	-5026
遥	-5027
−	-5028
讐	-5029
堰	-5030
曖	-5031
娯	-5032
謳	-5033
閏	-5034
昨	-5035
毅	-5036
畔	-5037
暁	-5038
愚	-5039
耶	-5040
杜	-5041
蝶	-5042
蛍	-5043
叶	-5044
嘩	-5045
箕	-5046
黎	-5047
塵	-5048
斯	-5049
濁	-5050
聡	-5051
憎	-5052
絹	-5053
餅	-5054
榴	-5055
恨	-5056
掴	-5057
憩	-5058
μ	-5059
虹	-5060
亘	-5061
恥	-5062
汰	-5063
諦	-5064
綬	-5065
丞	-5066
伽	-5067
迂	-5068
猶	-5069
紡	-5070
詐	-5071
汗	-5072
桓	-5073
蝦	-5074
弊	-5075
峯	-5076
紳	-5077
坦	-5078
ゞ	-5079
肯	-5080
鄭	-5081
歪	-5082
釧	-5083
或	-5084
殉	-5085
萬	-5086
嘱	-5087
琶	-5088
寅	-5089
詔	-5090
眺	-5091
悠	-5092
忙	-5093
茅	-5094
紐	-5095
焉	-5096
琵	-5097
輿	-5098
鴻	-5099
渦	-5100
憑	-5101
醒	-5102
а	-5103
ヂ	-5104
喰	-5105
貰	-5106
儲	-5107
漆	-5108
董	-5109
纏	-5110
頁	-5111
冶	-5112
棺	-5113
窯	-5114
隼	-5115
醤	-5116
餓	-5117
杵	-5118
拐	-5119
璧	-5120
巳	-5121
惹	-5122
喉	-5123
蜜	-5124
寵	-5125
騨	-5126
糾	-5127
錐	-5128
婆	-5129
濫	-5130
脆	-5131
桶	-5132
捻	-5133
荻	-5134
溢	-5135
彙	-5136
嶽	-5137
頸	-5138
云	-5139
柵	-5140
憤	-5141
其	-5142
柿	-5143
巴	-5144
蒼	-5145
〇	-5146
粟	-5147
峙	-5148
翅	-5149
硝	-5150
杖	-5151
肘	-5152
筐	-5153
欽	-5154
樋	-5155
狗	-5156
痺	-5157
朋	-5158
瞳	-5159
櫓	-5160
傭	-5161
ö	-5162
伺	-5163
蛮	-5164
團	-5165
剖	-5166
濱	-5167
錠	-5168
廣	-5169
蜀	-5170
蔑	-5171
串	-5172
噛	-5173
熙	-5174
ا	-5175
ζ	-5176
嘘	-5177
凄	-5178
撫	-5179
諜	-5180
楚	-5181
‐	-5182
稜	-5183
芥	-5184
戊	-5185
糞	-5186
怠	-5187
瞭	-5188
〔	-5189
矩	-5190
〕	-5191
膳	-5192
壬	-5193
諮	-5194
紺	-5195
曇	-5196
峨	-5197
ぺ	-5198
仇	-5199
翁	-5200
扮	-5201
惟	-5202
襟	-5203
悦	-5204
麟	-5205
鬱	-5206
~	-5207
榎	-5208
爾	-5209
祷	-5210
嗜	-5211
逢	-5212
唇	-5213
舘	-5214
牢	-5215
鵬	-5216
仔	-5217
瑠	-5218
只	-5219
眞	-5220
陪	-5221
霜	-5222
滴	-5223
ぁ	-5224
鎧	-5225
壺	-5226
譚	-5227
狐	-5228
謁	-5229
梱	-5230
魯	-5231
炊	-5232
蔽	-5233
寂	-5234
盧	-5235
梗	-5236
о	-5237
奄	-5238
噌	-5239
晒	-5240
ä	-5241
扁	-5242
喩	-5243
冗	-5244
渇	-5245
庸	-5246
漸	-5247
裾	-5248
揶	-5249
揄	-5250
珂	-5251
漑	-5252
鵜	-5253
徽	-5254
栓	-5255
蹄	-5256
棘	-5257
鈍	-5258
嵯	-5259
乞	-5260
賦	-5261
窺	-5262
隋	-5263
尹	-5264
葺	-5265
孵	-5266
и	-5267
帖	-5268
△	-5269
侮	-5270
巫	-5271
眉	-5272
囃	-5273
堕	-5274
勒	-5275
瀧	-5276
叉	-5277
壕	-5278
謹	-5279
賓	-5280
ぃ	-5281
壱	-5282
檀	-5283
輛	-5284
璃	-5285
溺	-5286
罷	-5287
遵	-5288
罹	-5289
胚	-5290
ó	-5291
煽	-5292
拷	-5293
諡	-5294
縞	-5295
檜	-5296
斥	-5297
▲	-5298
馳	-5299
罵	-5300
凸	-5301
寡	-5302
款	-5303
叱	-5304
弔	-5305
í	-5306
于	-5307
汐	-5308
@	-5309
諫	-5310
濯	-5311
燈	-5312
嬢	-5313
梓	-5314
雛	-5315
噺	-5316
坐	-5317
堵	-5318
呑	-5319
巌	-5320
姪	-5321
靭	-5322
煎	-5323
嶼	-5324
凹	-5325
堪	-5326
埠	-5327
爬	-5328
ヅ	-5329
’	-5330
繕	-5331
升	-5332
杭	-5333
孟	-5334
揖	-5335
攘	-5336
吟	-5337
駕	-5338
麹	-5339
叛	-5340
鄧	-5341
聯	-5342
轟	-5343
匂	-5344
椿	-5345
葵	-5346
詮	-5347
杏	-5348
鍾	-5349
皐	-5350
н	-5351
宕	-5352
麿	-5353
喝	-5354
騙	-5355
采	-5356
峻	-5357
榜	-5358
饉	-5359
苛	-5360
桟	-5361
釘	-5362
膠	-5363
拭	-5364
煉	-5365
鋒	-5366
瀕	-5367
碧	-5368
埴	-5369
γ	-5370
襄	-5371
咸	-5372
絆	-5373
妓	-5374
厄	-5375
怨	-5376
厨	-5377
冨	-5378
煩	-5379
隘	-5380
妬	-5381
允	-5382
隕	-5383
誅	-5384
毘	-5385
苫	-5386
叢	-5387
櫻	-5388
伍	-5389
芋	-5390
搾	-5391
煕	-5392
稔	-5393
蚕	-5394
禰	-5395
雁	-5396
娼	-5397
篭	-5398
踪	-5399
淑	-5400
喋	-5401
机	-5402
ぇ	-5403
渠	-5404
墾	-5405
楯	-5406
螺	-5407
錫	-5408
蕃	-5409
毀	-5410
剃	-5411
疇	-5412
氾	-5413
此	-5414
蛋	-5415
郁	-5416
訛	-5417
罠	-5418
逓	-5419
ω	-5420
р	-5421
$	-5422
芯	-5423
梯	-5424
è	-5425
晦	-5426
渤	-5427
曝	-5428
е	-5429
挽	-5430
緻	-5431
〒	-5432
斡	-5433
蔓	-5434
櫛	-5435
腱	-5436
矯	-5437
疹	-5438
弄	-5439
榛	-5440
朔	-5441
濠	-5442
鉾	-5443
巾	-5444
鞘	-5445
嬉	-5446
甫	-5447
而	-5448
σ	-5449
慧	-5450
宍	-5451
樫	-5452
嵩	-5453
薨	-5454
髭	-5455
嘴	-5456
禍	-5457
荊	-5458
薇	-5459
衙	-5460
弐	-5461
薙	-5462
窃	-5463
ī	-5464
兜	-5465
δ	-5466
吻	-5467
寇	-5468
惚	-5469
屏	-5470
鷺	-5471
妄	-5472
痴	-5473
榊	-5474
佑	-5475
蔭	-5476
亨	-5477
妾	-5478
薔	-5479
紗	-5480
醜	-5481
泄	-5482
礫	-5483
渾	-5484
濡	-5485
且	-5486
ل	-5487
俯	-5488
縣	-5489
斧	-5490
撒	-5491
祠	-5492
苻	-5493
墟	-5494
蔡	-5495
蕭	-5496
卯	-5497
崗	-5498
鍼	-5499
丼	-5500
в	-5501
旺	-5502
痢	-5503
匈	-5504
嫉	-5505
爺	-5506
耆	-5507
擲	-5508
跋	-5509
某	-5510
陛	-5511
做	-5512
遜	-5513
馮	-5514
葦	-5515
侠	-5516
轢	-5517
銚	-5518
с	-5519
瓜	-5520
鮎	-5521
●	-5522
賈	-5523
蕎	-5524
喬	-5525
彷	-5526
苔	-5527
殲	-5528
夭	-5529
殷	-5530
拗	-5531
漕	-5532
汝	-5533
勿	-5534
閃	-5535
蘆	-5536
腿	-5537
梵	-5538
劾	-5539
傀	-5540
玲	-5541
淮	-5542
匡	-5543
鼠	-5544
袴	-5545
洩	-5546
摺	-5547
儡	-5548
迭	-5549
曼	-5550
頬	-5551
堯	-5552
綺	-5553
魁	-5554
掻	-5555
熾	-5556
—	-5557
按	-5558
肋	-5559
喘	-5560
窩	-5561
ぢ	-5562
疆	-5563
曙	-5564
淘	-5565
聚	-5566
會	-5567
站	-5568
昏	-5569
崔	-5570
餐	-5571
酎	-5572
橙	-5573
衷	-5574
頒	-5575
禎	-5576
痘	-5577
鰓	-5578
冪	-5579
к	-5580
這	-5581
丙	-5582
捏	-5583
塀	-5584
浙	-5585
篆	-5586
蟹	-5587
穿	-5588
鋸	-5589
蹟	-5590
沃	-5591
λ	-5592
鹵	-5593
弼	-5594
灸	-5595
φ	-5596
π	-5597
薪	-5598
橿	-5599
翠	-5600
炒	-5601
覗	-5602
膏	-5603
堡	-5604
焚	-5605
箸	-5606
荼	-5607
蝋	-5608
嘗	-5609
š	-5610
т	-5611
肛	-5612
昂	-5613
慨	-5614
渚	-5615
呆	-5616
姜	-5617
舜	-5618
裳	-5619
л	-5620
遁	-5621
雍	-5622
炸	-5623
爽	-5624
渥	-5625
槌	-5626
娶	-5627
梢	-5628
謂	-5629
亥	-5630
宦	-5631
捷	-5632
竪	-5633
艤	-5634
虔	-5635
濾	-5636
卦	-5637
咽	-5638
兎	-5639
彌	-5640
彭	-5641
弩	-5642
璋	-5643
蝕	-5644
à	-5645
莢	-5646
湛	-5647
咎	-5648
飴	-5649
逼	-5650
奢	-5651
酋	-5652
閘	-5653
捗	-5654
砥	-5655
ن	-5656
詫	-5657
壽	-5658
繍	-5659
瞑	-5660
璽	-5661
洒	-5662
蕉	-5663
酪	-5664
疏	-5665
稙	-5666
脩	-5667
遙	-5668
鸞	-5669
偲	-5670
怯	-5671
畝	-5672
寓	-5673
艶	-5674
嘔	-5675
玖	-5676
粕	-5677
愕	-5678
諧	-5679
盃	-5680
逗	-5681
痩	-5682
彬	-5683
鯉	-5684
^	-5685
鹸	-5686
麒	-5687
躇	-5688
躊	-5689
掩	-5690
ي	-5691
竿	-5692
ū	-5693
綜	-5694
冑	-5695
軋	-5696
祓	-5697
茹	-5698
嚇	-5699
嗅	-5700
址	-5701
漱	-5702
倹	-5703
ε	-5704
贅	-5705
傅	-5706
厥	-5707
藪	-5708
嘲	-5709
珪	-5710
虞	-5711
贄	-5712
實	-5713
拮	-5714
揉	-5715
箔	-5716
鉤	-5717
芭	-5718
─	-5719
琢	-5720
萎	-5721
祚	-5722
陝	-5723
閤	-5724
·	-5725
狸	-5726
庚	-5727
閔	-5728
芹	-5729
臥	-5730
蚊	-5731
邊	-5732
珊	-5733
廿	-5734
肇	-5735
⇒	-5736
饅	-5737
佛	-5738
ر	-5739
冤	-5740
耽	-5741
楢	-5742
錆	-5743
刹	-5744
ç	-5745
鴎	-5746
溥	-5747
藁	-5748
糠	-5749
嵌	-5750
ゐ	-5751
淫	-5752
畏	-5753
碩	-5754
豹	-5755
欣	-5756
嚆	-5757
萱	-5758
齋	-5759
م	-5760
秤	-5761
戮	-5762
柑	-5763
膿	-5764
鮫	-5765
■	-5766
賤	-5767
箏	-5768
拙	-5769
甕	-5770
閻	-5771
卜	-5772
矮	-5773
掟	-5774
筈	-5775
蒔	-5776
犀	-5777
垢	-5778
絨	-5779
暢	-5780
荀	-5781
槇	-5782
嬰	-5783
槃	-5784
邇	-5785
僑	-5786
芙	-5787
彿	-5788
瓊	-5789
屑	-5790
紆	-5791
屠	-5792
靡	-5793
′	-5794
凰	-5795
竈	-5796
涅	-5797
塹	-5798
姑	-5799
賂	-5800
阮	-5801
穣	-5802
姚	-5803
﨑	-5804
傳	-5805
膵	-5806
唾	-5807
愁	-5808
蜘	-5809
讒	-5810
痙	-5811
蛛	-5812
鼎	-5813
范	-5814
頚	-5815
攣	-5816
荏	-5817
蓬	-5818
桿	-5819
葡	-5820
幇	-5821
塑	-5822
瑚	-5823
♪	-5824
碓	-5825
碗	-5826
鯖	-5827
懿	-5828
و	-5829
∞	-5830
乖	-5831
撥	-5832
圀	-5833
錘	-5834
厭	-5835
浚	-5836
趾	-5837
辣	-5838
套	-5839
豫	-5840
±	-5841
沌	-5842
冀	-5843
靱	-5844
д	-5845
禽	-5846
м	-5847
漿	-5848
錨	-5849
饗	-5850
ø	-5851
釉	-5852
迄	-5853
蔚	-5854
簒	-5855
馨	-5856
凪	-5857
甑	-5858
č	-5859
婁	-5860
躯	-5861
顆	-5862
咬	-5863
斤	-5864
邱	-5865
瘤	-5866
畷	-5867
愉	-5868
拿	-5869
翰	-5870
ú	-5871
鋏	-5872
韋	-5873
滸	-5874
糊	-5875
壷	-5876
傲	-5877
宥	-5878
紘	-5879
祢	-5880
蓉	-5881
祟	-5882
蕩	-5883
酉	-5884
臆	-5885
涌	-5886
莽	-5887
煌	-5888
穢	-5889
莱	-5890
媚	-5891
砺	-5892
緋	-5893
苅	-5894
憐	-5895
佃	-5896
濤	-5897
蹊	-5898
韮	-5899
宵	-5900
亢	-5901
ν	-5902
旛	-5903
諌	-5904
註	-5905
椒	-5906
禹	-5907
膀	-5908
髷	-5909
咳	-5910
胱	-5911
丕	-5912
貪	-5913
膣	-5914
θ	-5915
楷	-5916
與	-5917
餡	-5918
牒	-5919
恣	-5920
榮	-5921
猥	-5922
丑	-5923
匁	-5924
睨	-5925
蒐	-5926
袂	-5927
冴	-5928
謬	-5929
訊	-5930
ب	-5931
鯛	-5932
弛	-5933
耀	-5934
繭	-5935
厘	-5936
岑	-5937
佩	-5938
麾	-5939
僭	-5940
囁	-5941
掾	-5942
誦	-5943
蟄	-5944
證	-5945
鮭	-5946
蛭	-5947
楓	-5948
羌	-5949
穆	-5950
蛹	-5951
擾	-5952
瀋	-5953
疱	-5954
贋	-5955
狛	-5956
竄	-5957
汪	-5958
臀	-5959
鉉	-5960
捌	-5961
掠	-5962
枡	-5963
萄	-5964
捲	-5965
簾	-5966
餃	-5967
恪	-5968
聾	-5969
棍	-5970
禿	-5971
蟻	-5972
瑜	-5973
脛	-5974
莉	-5975
柚	-5976
酌	-5977
隧	-5978
姶	-5979
戎	-5980
謗	-5981
憾	-5982
雫	-5983
崑	-5984
輻	-5985
鞆	-5986
埔	-5987
廬	-5988
訃	-5989
屍	-5990
攪	-5991
椋	-5992
楔	-5993
羨	-5994
尤	-5995
廓	-5996
頌	-5997
鰐	-5998
些	-5999
箋	-6000
د	-6001
□	-6002
彪	-6003
槓	-6004
轍	-6005
髙	-6006
贖	-6007
蕨	-6008
鍮	-6009
粥	-6010
劫	-6011
抒	-6012
у	-6013
茜	-6014
竺	-6015
鍬	-6016
巽	-6017
‘	-6018
燻	-6019
悉	-6020
薛	-6021
鞠	-6022
鑽	-6023
ο	-6024
ß	-6025
旱	-6026
凧	-6027
冲	-6028
爛	-6029
‰	-6030
ゝ	-6031
邁	-6032
â	-6033
←	-6034
潘	-6035
τ	-6036
誹	-6037
顛	-6038
瘡	-6039
蓑	-6040
邉	-6041
霖	-6042
惠	-6043
櫃	-6044
毫	-6045
煥	-6046
裴	-6047
什	-6048
兌	-6049
ñ	-6050
魃	-6051
托	-6052
錮	-6053
◎	-6054
皓	-6055
讀	-6056
霍	-6057
蛙	-6058
≒	-6059
毯	-6060
ρ	-6061
菖	-6062
琳	-6063
赳	-6064
ा	-6065
撹	-6066
艘	-6067
婢	-6068
疋	-6069
驤	-6070
樟	-6071
獨	-6072
銑	-6073
饒	-6074
า	-6075
茲	-6076
鄴	-6077
巷	-6078
藏	-6079
穎	-6080
裟	-6081
煤	-6082
衍	-6083
圃	-6084
磔	-6085
哈	-6086
雉	-6087
⇔	-6088
訣	-6089
й	-6090
吃	-6091
籾	-6092
苞	-6093
墺	-6094
薗	-6095
氣	-6096
槙	-6097
燭	-6098
г	-6099
趨	-6100
沫	-6101
來	-6102
ô	-6103
竇	-6104
ς	-6105
凋	-6106
潭	-6107
塘	-6108
椀	-6109
樊	-6110
疼	-6111
岱	-6112
嗚	-6113
拌	-6114
鞨	-6115
絢	-6116
戌	-6117
隴	-6118
ː	-6119
♭	-6120
腋	-6121
♥	-6122
蜷	-6123
悶	-6124
姥	-6125
檎	-6126
κ	-6127
柊	-6128
漣	-6129
蕪	-6130
吠	-6131
鰹	-6132
س	-6133
笏	-6134
凛	-6135
菟	-6136
游	-6137
臧	-6138
并	-6139
瑛	-6140
舒	-6141
靺	-6142
綸	-6143
芒	-6144
ヱ	-6145
檣	-6146
蕊	-6147
窄	-6148
娩	-6149
駁	-6150
韶	-6151
ō	-6152
羲	-6153
鳶	-6154
å	-6155
鵠	-6156
埃	-6157
襖	-6158
斂	-6159
冉	-6160
瓢	-6161
閩	-6162
懺	-6163
梧	-6164
俘	-6165
唖	-6166
徘	-6167
徊	-6168
渭	-6169
箪	-6170
鮑	-6171
ι	-6172
б	-6173
ゑ	-6174
幟	-6175
忽	-6176
當	-6177
綏	-6178
賽	-6179
卍	-6180
絃	-6181
脾	-6182
桧	-6183
號	-6184
眷	-6185
臍	-6186
辟	-6187
鍔	-6188
貶	-6189
迹	-6190
浬	-6191
∀	-6192
狄	-6193
隗	-6194
п	-6195
甦	-6196
繹	-6197
奸	-6198
猷	-6199
咄	-6200
旁	-6201
盈	-6202
∈	-6203
摯	-6204
賣	-6205
禮	-6206
्	-6207
ร	-6208
耿	-6209
龐	-6210
咋	-6211
囮	-6212
惇	-6213
檻	-6214
誼	-6215
я	-6216
糎	-6217
徨	-6218
筏	-6219
萼	-6220
諒	-6221
奘	-6222
蔦	-6223
俟	-6224
眩	-6225
稗	-6226
鞄	-6227
茸	-6228
訶	-6229
熹	-6230
燐	-6231
鰻	-6232
ぅ	-6233
礦	-6234
糟	-6235
筵	-6236
輯	-6237
ã	-6238
砧	-6239
鯱	-6240
杷	-6241
恕	-6242
贔	-6243
髏	-6244
÷	-6245
惰	-6246
躙	-6247
髑	-6248
焙	-6249
瞞	-6250
屓	-6251
鏃	-6252
र	-6253
憚	-6254
聰	-6255
輜	-6256
ć	-6257
舅	-6258
®	-6259
ê	-6260
箒	-6261
ˈ	-6262
ヰ	-6263
槐	-6264
鶯	-6265
粲	-6266
↑	-6267
尭	-6268
漉	-6269
舐	-6270
邯	-6271
η	-6272
灼	-6273
褌	-6274
孚	-6275
舛	-6276
ة	-6277
≪	-6278
攸	-6279
桔	-6280
瑕	-6281
朧	-6282
琥	-6283
鏑	-6284
捺	-6285
≤	-6286
ē	-6287
ł	-6288
帛	-6289
虻	-6290
臂	-6291
衞	-6292
肴	-6293
蹂	-6294
崋	-6295
晰	-6296
渫	-6297
祗	-6298
ت	-6299
帷	-6300
沓	-6301
焔	-6302
呟	-6303
珀	-6304
袈	-6305
碍	-6306
赫	-6307
鐸	-6308
已	-6309
疵	-6310
仄	-6311
晏	-6312
艾	-6313
蘂	-6314
י	-6315
兗	-6316
寶	-6317
ぉ	-6318
檗	-6319
葱	-6320
諺	-6321
晁	-6322
檄	-6323
ž	-6324
桝	-6325
瀞	-6326
粍	-6327
僻	-6328
矧	-6329
碇	-6330
ч	-6331
坤	-6332
祁	-6333
蛸	-6334
逍	-6335
偕	-6336
圳	-6337
杓	-6338
瞰	-6339
齧	-6340
羞	-6341
ə	-6342
孕	-6343
飫	-6344
翟	-6345
瀉	-6346
瀑	-6347
裡	-6348
齟	-6349
齬	-6350
倦	-6351
塙	-6352
侃	-6353
闍	-6354
澱	-6355
宸	-6356
疽	-6357
蒜	-6358
饌	-6359
ع	-6360
≫	-6361
慄	-6362
褻	-6363
諍	-6364
坡	-6365
尸	-6366
»	-6367
鎬	-6368
炳	-6369
瞼	-6370
婉	-6371
涜	-6372
烙	-6373
น	-6374
茉	-6375
躁	-6376
鱒	-6377
奎	-6378
稠	-6379
攀	-6380
鋤	-6381
━	-6382
ه	-6383
煬	-6384
薮	-6385
æ	-6386
咀	-6387
鎚	-6388
儁	-6389
硯	-6390
蛾	-6391
闕	-6392
滓	-6393
ı	-6394
歿	-6395
†	-6396
囂	-6397
嬌	-6398
樂	-6399
兪	-6400
滲	-6401
踵	-6402
鴉	-6403
剪	-6404
匐	-6405
哥	-6406
昴	-6407
蝉	-6408
«	-6409
聳	-6410
脹	-6411
邵	-6412
雙	-6413
咤	-6414
棹	-6415
槿	-6416
臺	-6417
諷	-6418
ق	-6419
悌	-6420
朕	-6421
涛	-6422
瓚	-6423
ь	-6424
痰	-6425
ั	-6426
繇	-6427
寳	-6428
痒	-6429
♂	-6430
羹	-6431
怜	-6432
枇	-6433
俄	-6434
暉	-6435
ë	-6436
闊	-6437
喀	-6438
瑤	-6439
祺	-6440
禧	-6441
侈	-6442
匍	-6443
鬘	-6444
廖	-6445
澳	-6446
黛	-6447
ح	-6448
潁	-6449
鴈	-6450
澎	-6451
χ	-6452
戟	-6453
簗	-6454
匪	-6455
崙	-6456
拼	-6457
柘	-6458
嚥	-6459
涵	-6460
狡	-6461
逞	-6462
總	-6463
逵	-6464
奕	-6465
ك	-6466
蠣	-6467
鬚	-6468
ş	-6469
癸	-6470
哭	-6471
撚	-6472
攫	-6473
晟	-6474
啄	-6475
稷	-6476
鋲	-6477
偈	-6478
龕	-6479
柩	-6480
毬	-6481
莞	-6482
恰	-6483
沐	-6484
涸	-6485
溪	-6486
恫	-6487
魄	-6488
仗	-6489
匝	-6490
嬬	-6491
泗	-6492
咫	-6493
棠	-6494
齊	-6495
彅	-6496
亦	-6497
氐	-6498
菰	-6499
鉦	-6500
ы	-6501
洙	-6502
俠	-6503
汀	-6504
笙	-6505
蓼	-6506
扈	-6507
黌	-6508
з	-6509
•	-6510
ง	-6511
燁	-6512
疸	-6513
滬	-6514
炙	-6515
瑳	-6516
痍	-6517
櫂	-6518
癬	-6519
箭	-6520
芻	-6521
ו	-6522
彧	-6523
淋	-6524
琨	-6525
ج	-6526
勁	-6527
沮	-6528
經	-6529
緬	-6530
茄	-6531
欅	-6532
謄	-6533
ï	-6534
澁	-6535
猜	-6536
籤	-6537
詢	-6538
鈔	-6539
靳	-6540
謐	-6541
邨	-6542
்	-6543
睾	-6544
几	-6545
臘	-6546
袍	-6547
襷	-6548
邂	-6549
瀾	-6550
逅	-6551
≠	-6552
薊	-6553
嗟	-6554
蕾	-6555
鄲	-6556
佇	-6557
夙	-6558
梟	-6559
猾	-6560
絣	-6561
倖	-6562
弉	-6563
畢	-6564
◆	-6565
侑	-6566
刎	-6567
拵	-6568
盪	-6569
î	-6570
笥	-6571
郃	-6572
徂	-6573
沛	-6574
ה	-6575
椰	-6576
藉	-6577
睿	-6578
鄒	-6579
閾	-6580
х	-6581
鉋	-6582
叟	-6583
霰	-6584
乂	-6585
咩	-6586
徠	-6587
珈	-6588
瓘	-6589
秉	-6590
藺	-6591
迪	-6592
卉	-6593
撞	-6594
ר	-6595
弗	-6596
摸	-6597
翳	-6598
聲	-6599
ḥ	-6600
滄	-6601
琅	-6602
艮	-6603
乎	-6604
歆	-6605
籃	-6606
鐙	-6607
鑿	-6608
掬	-6609
棗	-6610
禦	-6611
亞	-6612
酊	-6613
孜	-6614
巖	-6615
戔	-6616
羯	-6617
ψ	-6618
獏	-6619
凉	-6620
埜	-6621
怡	-6622
軻	-6623
酩	-6624
驕	-6625
戍	-6626
禊	-6627
腓	-6628
ý	-6629
་	-6630
琲	-6631
綝	-6632
斃	-6633
褶	-6634
ð	-6635
เ	-6636
德	-6637
ă	-6638
ě	-6639
ش	-6640
◇	-6641
枷	-6642
衾	-6643
體	-6644
ì	-6645
ی	-6646
嚼	-6647
杣	-6648
舍	-6649
瑪	-6650
邀	-6651
อ	-6652
琮	-6653
畦	-6654
蜃	-6655
幀	-6656
澪	-6657
躬	-6658
ف	-6659
杢	-6660
礒	-6661
髣	-6662
髴	-6663
輳	-6664
駈	-6665
́	-6666
錚	-6667
楡	-6668
淹	-6669
瑾	-6670
翡	-6671
郤	-6672
剋	-6673
敲	-6674
甄	-6675
跪	-6676
◯	-6677
碕	-6678
篁	-6679
茗	-6680
軾	-6681
鵡	-6682
寨	-6683
戈	-6684
斌	-6685
潼	-6686
燦	-6687
醗	-6688
關	-6689
頴	-6690
廈	-6691
皝	-6692
兒	-6693
咥	-6694
庾	-6695
鄙	-6696
截	-6697
曄	-6698
橈	-6699
屁	-6700
蝠	-6701
ò	-6702
ś	-6703
唸	-6704
憬	-6705
淆	-6706
皺	-6707
簀	-6708
廼	-6709
゚	-6710
捩	-6711
栂	-6712
筍	-6713
詛	-6714
υ	-6715
א	-6716
吼	-6717
奠	-6718
燮	-6719
篩	-6720
胥	-6721
葭	-6722
蝗	-6723
螢	-6724
鈞	-6725
銛	-6726
齎	-6727
म	-6728
奚	-6729
狽	-6730
蘊	-6731
鯰	-6732
猗	-6733
艀	-6734
賁	-6735
`	-6736
廂	-6737
綽	-6738
萠	-6739
鰍	-6740
ว	-6741
寔	-6742
恢	-6743
呵	-6744
¥	-6745
ก	-6746
炮	-6747
陞	-6748
鵄	-6749
剌	-6750
喇	-6751
舫	-6752
鮨	-6753
न	-6754
ヮ	-6755
偃	-6756
渟	-6757
訥	-6758
ि	-6759
紬	-6760
蜻	-6761
蝸	-6762
謨	-6763
驃	-6764
爻	-6765
肱	-6766
鞅	-6767
將	-6768
昊	-6769
烹	-6770
渣	-6771
滕	-6772
燼	-6773
襞	-6774
餘	-6775
鬆	-6776
↓	-6777
斛	-6778
猴	-6779
昶	-6780
醇	-6781
屎	-6782
ย	-6783
剱	-6784
欒	-6785
苧	-6786
蟲	-6787
魍	-6788
壹	-6789
愍	-6790
爲	-6791
甜	-6792
翊	-6793
萇	-6794
蟠	-6795
鮒	-6796
暈	-6797
漳	-6798
鮪	-6799
ξ	-6800
栞	-6801
痔	-6802
禾	-6803
蝙	-6804
樅	-6805
櫨	-6806
獰	-6807
砒	-6808
鹽	-6809
ز	-6810
≥	-6811
俎	-6812
槨	-6813
發	-6814
礪	-6815
褚	-6816
駱	-6817
鰯	-6818
椙	-6819
琦	-6820
ל	-6821
柾	-6822
樵	-6823
嚮	-6824
憺	-6825
擱	-6826
癇	-6827
ù	-6828
瑁	-6829
菴	-6830
蟇	-6831
鈎	-6832
銖	-6833
麩	-6834
黍	-6835
娑	-6836
汾	-6837
芬	-6838
蹠	-6839
त	-6840
♯	-6841
咆	-6842
秣	-6843
頤	-6844
飜	-6845
廆	-6846
愈	-6847
絲	-6848
訌	-6849
ม	-6850
苺	-6851
賎	-6852
躾	-6853
饋	-6854
ส	-6855
暐	-6856
沽	-6857
筰	-6858
翫	-6859
褪	-6860
遹	-6861
鋪	-6862
ิ	-6863
燗	-6864
盞	-6865
竟	-6866
魎	-6867
撓	-6868
浣	-6869
犍	-6870
粤	-6871
辯	-6872
鞋	-6873
頗	-6874
ห	-6875
柯	-6876
傕	-6877
梃	-6878
燧	-6879
蛯	-6880
嘯	-6881
搗	-6882
蛉	-6883
匙	-6884
撼	-6885
聶	-6886
舩	-6887
邢	-6888
楳	-6889
邕	-6890
韜	-6891
頽	-6892
馥	-6893
ш	-6894
佼	-6895
捐	-6896
鈿	-6897
♡	-6898
燿	-6899
縯	-6900
臈	-6901
銜	-6902
ी	-6903
剽	-6904
厲	-6905
腑	-6906
蠕	-6907
闢	-6908
鵞	-6909
خ	-6910
〝	-6911
粂	-6912
糀	-6913
鈑	-6914
ด	-6915
掖	-6916
炬	-6917
籬	-6918
閭	-6919
︎	-6920
儚	-6921
熈	-6922
缺	-6923
鴦	-6924
鑼	-6925
พ	-6926
份	-6927
嵜	-6928
搦	-6929
猩	-6930
舁	-6931
鴫	-6932
ב	-6933
क	-6934
侘	-6935
昱	-6936
簪	-6937
飄	-6938
亙	-6939
汜	-6940
緘	-6941
顗	-6942
鼈	-6943
哮	-6944
泛	-6945
銕	-6946
雹	-6947
騏	-6948
ี	-6949
鎔	-6950
瞻	-6951
笄	-6952
筧	-6953
紇	-6954
邏	-6955
ɛ	-6956
杮	-6957
疣	-6958
礬	-6959
肆	-6960
鰺	-6961
彊	-6962
濬	-6963
處	-6964
褥	-6965
譙	-6966
郝	-6967
盂	-6968
篋	-6969
薯	-6970
蛤	-6971
譴	-6972
軛	-6973
戰	-6974
瞽	-6975
矣	-6976
颯	-6977
騫	-6978
驍	-6979
鬨	-6980
鶻	-6981
鸚	-6982
≡	-6983
〆	-6984
〟	-6985
恆	-6986
悍	-6987
曺	-6988
瑋	-6989
瑩	-6990
£	-6991
ต	-6992
冏	-6993
ש	-6994
ल	-6995
จ	-6996
圖	-6997
毌	-6998
磋	-6999
罐	-7000
罫	-7001
顰	-7002
麴	-7003
व	-7004
冰	-7005
憫	-7006
縊	-7007
菫	-7008
頡	-7009
佗	-7010
鷗	-7011
ṣ	-7012
敞	-7013
泓	-7014
埒	-7015
杞	-7016
癩	-7017
鑓	-7018
ц	-7019
臚	-7020
躓	-7021
洸	-7022
邳	-7023
स	-7024
彝	-7025
瀟	-7026
皖	-7027
籐	-7028
閨	-7029
駝	-7030
恍	-7031
楮	-7032
橇	-7033
瞥	-7034
蜥	-7035
蜴	-7036
蝿	-7037
鍍	-7038
מ	-7039
潴	-7040
ά	-7041
籌	-7042
繆	-7043
繞	-7044
襦	-7045
邈	-7046
闡	-7047
糜	-7048
釋	-7049
慟	-7050
茫	-7051
褄	-7052
歙	-7053
癪	-7054
緞	-7055
ί	-7056
祜	-7057
ж	-7058
ம	-7059
滎	-7060
袢	-7061
躰	-7062
勗	-7063
无	-7064
熨	-7065
衒	-7066
鹹	-7067
đ	-7068
ф	-7069
刳	-7070
劈	-7071
岷	-7072
甌	-7073
砿	-7074
訝	-7075
讖	-7076
蹙	-7077
辨	-7078
鉈	-7079
鐡	-7080
ṭ	-7081
抉	-7082
晨	-7083
栢	-7084
楨	-7085
穹	-7086
紂	-7087
苓	-7088
蝮	-7089
谿	-7090
द	-7091
嬪	-7092
嶌	-7093
濮	-7094
烽	-7095
¬	-7096
歎	-7097
瀝	-7098
磾	-7099
筌	-7100
餞	-7101
髻	-7102
麝	-7103
琰	-7104
衿	-7105
이	-7106
厠	-7107
悸	-7108
敖	-7109
沂	-7110
熔	-7111
蛟	-7112
蠍	-7113
詭	-7114
鈷	-7115
顒	-7116
ட	-7117
ท	-7118
⁄	-7119
泪	-7120
瑶	-7121
筥	-7122
籔	-7123
蛆	-7124
蛎	-7125
誣	-7126
驢	-7127
ǎ	-7128
寬	-7129
撈	-7130
鄯	-7131
倚	-7132
劔	-7133
娥	-7134
恂	-7135
恤	-7136
枳	-7137
舂	-7138
菲	-7139
鄂	-7140
咒	-7141
舳	-7142
ό	-7143
゙	-7144
對	-7145
幢	-7146
弋	-7147
聊	-7148
鴛	-7149
黔	-7150
ת	-7151
匣	-7152
簑	-7153
菁	-7154
譬	-7155
雎	-7156
प	-7157
娃	-7158
甸	-7159
稟	-7160
鄰	-7161
鉞	-7162
雖	-7163
驪	-7164
ล	-7165
厦	-7166
埵	-7167
碼	-7168
贛	-7169
鱈	-7170
§	-7171
û	-7172
ʃ	-7173
嶷	-7174
滇	-7175
瀛	-7176
琬	-7177
瑣	-7178
瘴	-7179
禕	-7180
鐐	-7181
鶉	-7182
þ	-7183
ط	-7184
∧	-7185
暹	-7186
汕	-7187
炯	-7188
篝	-7189
膺	-7190
夥	-7191
孺	-7192
毗	-7193
涿	-7194
ř	-7195
假	-7196
姐	-7197
瘻	-7198
箴	-7199
膾	-7200
龔	-7201
叭	-7202
媽	-7203
桀	-7204
權	-7205
筮	-7206
蕗	-7207
螂	-7208
酈	-7209
餉	-7210
ह	-7211
僊	-7212
掣	-7213
朶	-7214
杼	-7215
澗	-7216
磊	-7217
閼	-7218
ŋ	-7219
朦	-7220
矜	-7221
胝	-7222
誨	-7223
أ	-7224
ु	-7225
ி	-7226
卬	-7227
笈	-7228
ग	-7229
澹	-7230
瘢	-7231
蚤	-7232
躅	-7233
鰾	-7234
ะ	-7235
棣	-7236
罕	-7237
貂	-7238
鑁	-7239
鞏	-7240
哩	-7241
夾	-7242
弌	-7243
弑	-7244
扼	-7245
栩	-7246
灣	-7247
轡	-7248
佚	-7249
悴	-7250
毓	-7251
潅	-7252
ğ	-7253
ุ	-7254
仍	-7255
憔	-7256
樗	-7257
滔	-7258
蔀	-7259
靈	-7260
่	-7261
√	-7262
≧	-7263
愴	-7264
愾	-7265
痣	-7266
糺	-7267
謔	-7268
躑	-7269
鮓	-7270
ń	-7271
≦	-7272
夔	-7273
愷	-7274
樓	-7275
涎	-7276
烟	-7277
盒	-7278
箚	-7279
輦	-7280
ע	-7281
羣	-7282
逡	-7283
闔	-7284
鵯	-7285
ص	-7286
ى	-7287
์	-7288
冢	-7289
匯	-7290
吽	-7291
拱	-7292
曠	-7293
檬	-7294
羈	-7295
謚	-7296
鞜	-7297
ţ	-7298
佞	-7299
擅	-7300
檸	-7301
霆	-7302
殯	-7303
珎	-7304
荃	-7305
辮	-7306
醪	-7307
ד	-7308
卞	-7309
卷	-7310
涪	-7311
濟	-7312
瞿	-7313
聟	-7314
葯	-7315
袱	-7316
錣	-7317
鰊	-7318
ő	-7319
บ	-7320
้	-7321
儘	-7322
汶	-7323
繚	-7324
詡	-7325
鵝	-7326
ę	-7327
э	-7328
ա	-7329
兀	-7330
嵆	-7331
從	-7332
濘	-7333
燵	-7334
璞	-7335
莎	-7336
遐	-7337
頷	-7338
ज	-7339
♀	-7340
儼	-7341
嗽	-7342
嫩	-7343
霸	-7344
馗	-7345
鯵	-7346
­	-7347
ɣ	-7348
ค	-7349
淺	-7350
珥	-7351
顯	-7352
鵰	-7353
य	-7354
姨	-7355
暎	-7356
洵	-7357
詁	-7358
飡	-7359
區	-7360
坏	-7361
壙	-7362
懣	-7363
熕	-7364
碾	-7365
נ	-7366
े	-7367
ช	-7368
啖	-7369
涇	-7370
滉	-7371
筺	-7372
詈	-7373
邽	-7374
靚	-7375
ர	-7376
櫟	-7377
芮	-7378
蔬	-7379
蟷	-7380
鈕	-7381
靄	-7382
韃	-7383
ɑ	-7384
汴	-7385
簸	-7386
蕁	-7387
鬢	-7388
𠮷	-7389
溯	-7390
藷	-7391
轆	-7392
鄱	-7393
鉅	-7394
鑚	-7395
鵺	-7396
咨	-7397
楫	-7398
渙	-7399
瑯	-7400
皋	-7401
苟	-7402
袿	-7403
釦	-7404
闓	-7405
ब	-7406
俑	-7407
憊	-7408
曉	-7409
杲	-7410
框	-7411
洽	-7412
碌	-7413
粮	-7414
縒	-7415
纒	-7416
蒯	-7417
衢	-7418
ʻ	-7419
ю	-7420
冕	-7421
杁	-7422
篥	-7423
絅	-7424
臏	-7425
郞	-7426
鎗	-7427
駢	-7428
ɔ	-7429
棕	-7430
歇	-7431
歸	-7432
琿	-7433
矗	-7434
裃	-7435
辜	-7436
陟	-7437
ɒ	-7438
ɪ	-7439
̈	-7440
儺	-7441
笞	-7442
蘋	-7443
蠅	-7444
œ	-7445
∠	-7446
劭	-7447
卡	-7448
喙	-7449
拔	-7450
沁	-7451
篳	-7452
縅	-7453
訢	-7454
ż	-7455
ʿ	-7456
ं	-7457
焜	-7458
芍	-7459
誡	-7460
譽	-7461
酥	-7462
垓	-7463
槎	-7464
濊	-7465
稈	-7466
襴	-7467
誥	-7468
諶	-7469
跛	-7470
釗	-7471
鑾	-7472
鵲	-7473
ą	-7474
غ	-7475
昵	-7476
筅	-7477
闐	-7478
髦	-7479
க	-7480
▽	-7481
勺	-7482
匕	-7483
彎	-7484
疝	-7485
啜	-7486
妍	-7487
恬	-7488
旌	-7489
暠	-7490
榕	-7491
淞	-7492
畫	-7493
縷	-7494
蠡	-7495
陂	-7496
ח	-7497
ா	-7498
▼	-7499
亳	-7500
囀	-7501
娜	-7502
栴	-7503
糯	-7504
葫	-7505
豎	-7506
ข	-7507
ა	-7508
€	-7509
儔	-7510
垠	-7511
晄	-7512
滿	-7513
箆	-7514
紊	-7515
縻	-7516
⚫	-7517
愼	-7518
昉	-7519
瑙	-7520
薀	-7521
謖	-7522
鞴	-7523
έ	-7524
尓	-7525
梳	-7526
犂	-7527
禺	-7528
竃	-7529
籟	-7530
艙	-7531
轤	-7532
俚	-7533
兇	-7534
稍	-7535
絳	-7536
縺	-7537
詹	-7538
蹶	-7539
驟	-7540
鬣	-7541
鸕	-7542
倅	-7543
刁	-7544
噪	-7545
奧	-7546
徭	-7547
瀘	-7548
蒿	-7549
蘚	-7550
騭	-7551
த	-7552
ு	-7553
喆	-7554
坎	-7555
擂	-7556
窘	-7557
綰	-7558
臙	-7559
蘿	-7560
蠱	-7561
貊	-7562
雞	-7563
黴	-7564
வ	-7565
伶	-7566
們	-7567
吝	-7568
嗇	-7569
壟	-7570
奐	-7571
幄	-7572
悛	-7573
攝	-7574
釐	-7575
錕	-7576
么	-7577
勣	-7578
巒	-7579
杰	-7580
枋	-7581
椛	-7582
耘	-7583
舊	-7584
靫	-7585
©	-7586
̇	-7587
ָ	-7588
▪	-7589
俶	-7590
沱	-7591
琛	-7592
笊	-7593
闞	-7594
і	-7595
匱	-7596
廳	-7597
櫚	-7598
繫	-7599
袞	-7600
踞	-7601
鑒	-7602
⊿	-7603
ゎ	-7604
庖	-7605
楸	-7606
榧	-7607
芾	-7608
莒	-7609
萊	-7610
豐	-7611
靼	-7612
ʔ	-7613
≈	-7614
懼	-7615
旻	-7616
縹	-7617
蠢	-7618
裨	-7619
觀	-7620
顥	-7621
馭	-7622
김	-7623
아	-7624
ک	-7625
ศ	-7626
侗	-7627
惲	-7628
挹	-7629
數	-7630
昕	-7631
榑	-7632
淄	-7633
穐	-7634
蒹	-7635
鼬	-7636
기	-7637
조	-7638
ˌ	-7639
ם	-7640
ן	-7641
∇	-7642
弴	-7643
晧	-7644
氈	-7645
洮	-7646
淇	-7647
獺	-7648
蒟	-7649
蜆	-7650
豺	-7651
輓	-7652
醫	-7653
鋺	-7654
隨	-7655
雜	-7656
리	-7657
僖	-7658
冽	-7659
吒	-7660
峅	-7661
柞	-7662
棉	-7663
椹	-7664
溌	-7665
濵	-7666
磧	-7667
窈	-7668
繪	-7669
葆	-7670
श	-7671
倪	-7672
弇	-7673
悳	-7674
斟	-7675
淨	-7676
瀚	-7677
琺	-7678
璟	-7679
皎	-7680
筠	-7681
軫	-7682
郅	-7683
郢	-7684
酛	-7685
麁	-7686
ი	-7687
啼	-7688
淝	-7689
颪	-7690
魑	-7691
M	-7692
∴	-7693
厖	-7694
惺	-7695
攬	-7696
漲	-7697
犢	-7698
畸	-7699
蒴	-7700
蔗	-7701
蚩	-7702
跏	-7703
醉	-7704
鉗	-7705
T	-7706
া	-7707
ป	-7708
ས	-7709
∨	-7710
⊂	-7711
嚴	-7712
屹	-7713
楞	-7714
欖	-7715
爨	-7716
稱	-7717
陌	-7718
霄	-7719
靠	-7720
ɡ	-7721
ּ	-7722
ो	-7723
ṇ	-7724
∂	-7725
嬴	-7726
盡	-7727
勳	-7728
墉	-7729
熏	-7730
萍	-7731
轉	-7732
醂	-7733
霓	-7734
霹	-7735
靂	-7736
鞮	-7737
騸	-7738
龗	-7739
ύ	-7740
ོ	-7741
冄	-7742
戡	-7743
穰	-7744
艪	-7745
錢	-7746
阯	-7747
麵	-7748
點	-7749
ť	-7750
ё	-7751
俅	-7752
懋	-7753
拯	-7754
淩	-7755
瀆	-7756
粳	-7757
羂	-7758
蕙	-7759
圍	-7760
峴	-7761
忻	-7762
橄	-7763
灤	-7764
牆	-7765
獪	-7766
藹	-7767
虢	-7768
覺	-7769
贇	-7770
鑰	-7771
대	-7772
사	-7773
ė	-7774
ַ	-7775
ג	-7776
ק	-7777
آ	-7778
ᆞ	-7779
∩	-7780
剿	-7781
堝	-7782
效	-7783
暘	-7784
曁	-7785
燾	-7786
綫	-7787
覯	-7788
蹇	-7789
頊	-7790
黐	-7791
한	-7792
ǐ	-7793
ְ	-7794
ס	-7795
پ	-7796
ण	-7797
भ	-7798
ப	-7799
劃	-7800
噲	-7801
坩	-7802
朮	-7803
珉	-7804
綎	-7805
莚	-7806
變	-7807
陋	-7808
戀	-7809
楙	-7810
榔	-7811
琪	-7812
璉	-7813
纓	-7814
艸	-7815
莆	-7816
蒻	-7817
轅	-7818
醴	-7819
鐚	-7820
스	-7821
¢	-7822
ư	-7823
פ	-7824
佟	-7825
墻	-7826
巍	-7827
懃	-7828
檮	-7829
續	-7830
翦	-7831
芷	-7832
茘	-7833
菘	-7834
虱	-7835
邃	-7836
閎	-7837
雕	-7838
龜	-7839
∪	-7840
挾	-7841
緝	-7842
翹	-7843
誂	-7844
讚	-7845
ƒ	-7846
כ	-7847
ถ	-7848
แ	-7849
俱	-7850
凜	-7851
妲	-7852
媧	-7853
慇	-7854
晞	-7855
枹	-7856
溟	-7857
犁	-7858
瑀	-7859
璜	-7860
碭	-7861
糒	-7862
罔	-7863
羿	-7864
艱	-7865
觴	-7866
駙	-7867
ט	-7868
你	-7869
恃	-7870
涓	-7871
瑭	-7872
舺	-7873
艋	-7874
諄	-7875
蹲	-7876
鐔	-7877
隸	-7878
õ	-7879
ء	-7880
ष	-7881
侭	-7882
奭	-7883
憙	-7884
據	-7885
晤	-7886
桴	-7887
椚	-7888
洱	-7889
玻	-7890
縋	-7891
翕	-7892
迴	-7893
釵	-7894
靜	-7895
선	-7896
ǔ	-7897
च	-7898
〃	-7899
丶	-7900
專	-7901
岨	-7902
渝	-7903
猊	-7904
肚	-7905
胖	-7906
萃	-7907
諚	-7908
閒	-7909
闥	-7910
雒	-7911
騶	-7912
ή	-7913
ث	-7914
ظ	-7915
ག	-7916
勛	-7917
嫦	-7918
孩	-7919
岫	-7920
崧	-7921
嶠	-7922
扎	-7923
泠	-7924
爭	-7925
瑗	-7926
璘	-7927
粽	-7928
膽	-7929
蘄	-7930
誾	-7931
豨	-7932
赭	-7933
趺	-7934
軼	-7935
鏤	-7936
鴇	-7937
도	-7938
ÿ	-7939
ʒ	-7940
अ	-7941
ไ	-7942
ํ	-7943
↔	-7944
厝	-7945
呻	-7946
帚	-7947
弯	-7948
煜	-7949
瑟	-7950
裒	-7951
إ	-7952
བ	-7953
ẓ	-7954
∼	-7955
ヽ	-7956
兩	-7957
剳	-7958
徙	-7959
烝	-7960
璿	-7961
畯	-7962
瞋	-7963
箍	-7964
耙	-7965
艫	-7966
贊	-7967
邛	-7968
髯	-7969
黃	-7970
의	-7971
ր	-7972
ธ	-7973
โ	-7974
乍	-7975
寰	-7976
紮	-7977
苴	-7978
袷	-7979
讓	-7980
豁	-7981
闖	-7982
顓	-7983
黨	-7984
국	-7985
چ	-7986
ध	-7987
ᄅ	-7988
„	-7989
圜	-7990
夛	-7991
拏	-7992
毖	-7993
濞	-7994
癲	-7995
眭	-7996
礙	-7997
蔿	-7998
어	-7999
주	-8000
지	-8001
ִ	-8002
ภ	-8003
ე	-8004
內	-8005
厓	-8006
嗄	-8007
塡	-8008
忿	-8009
抛	-8010
樸	-8011
橡	-8012
瀏	-8013
甯	-8014
聿	-8015
鎭	-8016
鵤	-8017
전	-8018
ض	-8019
্	-8020
ར	-8021
⊆	-8022
亶	-8023
兮	-8024
剄	-8025
媼	-8026
愔	-8027
沔	-8028
湣	-8029
澂	-8030
煊	-8031
狆	-8032
瓏	-8033
眈	-8034
睢	-8035
禱	-8036
竝	-8037
葷	-8038
閖	-8039
驥	-8040
ն	-8041
ู	-8042
ạ	-8043
倩	-8044
弖	-8045
拇	-8046
檳	-8047
疥	-8048
禪	-8049
粱	-8050
蕤	-8051
覲	-8052
蹉	-8053
鍇	-8054
佶	-8055
呰	-8056
娍	-8057
岔	-8058
嵬	-8059
廩	-8060
惡	-8061
湍	-8062
玕	-8063
痂	-8064
眜	-8065
笘	-8066
筝	-8067
蟾	-8068
襠	-8069
貘	-8070
閂	-8071
驀	-8072
鷦	-8073
ז	-8074
ད	-8075
ལ	-8076
ི	-8077
゠	-8078
傉	-8079
嶮	-8080
愧	-8081
椏	-8082
潽	-8083
牘	-8084
盥	-8085
絁	-8086
罘	-8087
腟	-8088
莅	-8089
誄	-8090
謾	-8091
鏢	-8092
驛	-8093
黑	-8094
정	-8095
צ	-8096
∅	-8097
仝	-8098
擡	-8099
收	-8100
枩	-8101
燔	-8102
營	-8103
狒	-8104
莘	-8105
踝	-8106
軀	-8107
迢	-8108
鏨	-8109
陘	-8110
동	-8111
수	-8112
參	-8113
孰	-8114
屬	-8115
懈	-8116
暲	-8117
椴	-8118
汞	-8119
潯	-8120
濂	-8121
燎	-8122
珸	-8123
絖	-8124
肄	-8125
萢	-8126
裝	-8127
蹈	-8128
髱	-8129
鴟	-8130
시	-8131
ŭ	-8132
ّ	-8133
མ	-8134
ḍ	-8135
刪	-8136
壩	-8137
岌	-8138
幔	-8139
捄	-8140
睺	-8141
脉	-8142
躱	-8143
鷯	-8144
ľ	-8145
噶	-8146
徧	-8147
淦	-8148
箙	-8149
莵	-8150
葩	-8151
逄	-8152
閇	-8153
頫	-8154
魴	-8155
鰤	-8156
鱶	-8157
성	-8158
영	-8159
N	-8160
گ	-8161
⊕	-8162
┃	-8163
儷	-8164
圉	-8165
姆	-8166
嫗	-8167
寥	-8168
寫	-8169
广	-8170
廞	-8171
掉	-8172
旃	-8173
殤	-8174
毋	-8175
湟	-8176
濰	-8177
炻	-8178
獠	-8179
磡	-8180
窖	-8181
蝎	-8182
謌	-8183
踰	-8184
鋌	-8185
雋	-8186
霙	-8187
해	-8188
ـ	-8189
ང	-8190
ᅵ	-8191
僉	-8192
剝	-8193
姒	-8194
嬲	-8195
廨	-8196
惕	-8197
爰	-8198
癡	-8199
眸	-8200
睛	-8201
筬	-8202
繻	-8203
葎	-8204
蠟	-8205
輕	-8206
郗	-8207
鄢	-8208
飩	-8209
鰌	-8210
鷸	-8211
默	-8212
박	-8213
우	-8214
ħ	-8215
ல	-8216
ษ	-8217
რ	-8218
ṃ	-8219
‖	-8220
乐	-8221
亟	-8222
侏	-8223
儂	-8224
儋	-8225
劍	-8226
囊	-8227
姝	-8228
婺	-8229
朓	-8230
梛	-8231
淤	-8232
睹	-8233
稻	-8234
粹	-8235
鈺	-8236
鑢	-8237
駮	-8238
구	-8239
나	-8240
ň	-8241
ʊ	-8242
щ	-8243
ո	-8244
ئ	-8245
ذ	-8246
ट	-8247
ड	-8248
ச	-8249
ณ	-8250
乘	-8251
塢	-8252
擔	-8253
杆	-8254
梠	-8255
潞	-8256
秭	-8257
竑	-8258
臻	-8259
諳	-8260
讎	-8261
郯	-8262
郴	-8263
鏞	-8264
霽	-8265
頠	-8266
신	-8267
학	-8268
¡	-8269
র	-8270
佬	-8271
侂	-8272
奝	-8273
峪	-8274
澈	-8275
炫	-8276
珞	-8277
瓔	-8278
甍	-8279
笮	-8280
籀	-8281
耄	-8282
蓙	-8283
薺	-8284
詧	-8285
豬	-8286
跌	-8287
鏗	-8288
鏝	-8289
閦	-8290
鯀	-8291
鰒	-8292
鴬	-8293
ू	-8294
ম	-8295
ლ	-8296
嘛	-8297
圻	-8298
屡	-8299
廚	-8300
忱	-8301
慾	-8302
懌	-8303
扌	-8304
挂	-8305
欝	-8306
洌	-8307
淸	-8308
瓠	-8309
盎	-8310
穪	-8311
簧	-8312
絽	-8313
蒡	-8314
諤	-8315
豈	-8316
辷	-8317
鐺	-8318
黽	-8319
고	-8320
다	-8321
서	-8322
원	-8323
하	-8324
َ	-8325
़	-8326
ᄀ	-8327
單	-8328
寐	-8329
懊	-8330
曷	-8331
沾	-8332
狷	-8333
琇	-8334
睫	-8335
穗	-8336
窠	-8337
羆	-8338
聨	-8339
茣	-8340
蜚	-8341
輅	-8342
辭	-8343
鎹	-8344
鑞	-8345
鑲	-8346
閬	-8347
鴒	-8348
黟	-8349
경	-8350
민	-8351
ե	-8352
ի	-8353
ֶ	-8354
ნ	-8355
ᄇ	-8356
ễ	-8357
哄	-8358
喊	-8359
壜	-8360
懶	-8361
戛	-8362
搏	-8363
沅	-8364
滌	-8365
澶	-8366
玠	-8367
璐	-8368
祿	-8369
繩	-8370
耒	-8371
肜	-8372
謫	-8373
蹋	-8374
逖	-8375
遯	-8376
鍈	-8377
鬯	-8378
鼐	-8379
齲	-8380
만	-8381
오	-8382
일	-8383
자	-8384
ŏ	-8385
ơ	-8386
ώ	-8387
འ	-8388
乕	-8389
俀	-8390
俥	-8391
册	-8392
凮	-8393
吶	-8394
埓	-8395
巂	-8396
帶	-8397
忉	-8398
慂	-8399
慊	-8400
慫	-8401
慷	-8402
拈	-8403
擒	-8404
樒	-8405
沘	-8406
獻	-8407
玃	-8408
畤	-8409
疳	-8410
磚	-8411
簇	-8412
簋	-8413
罃	-8414
蔣	-8415
蜉	-8416
蝣	-8417
衫	-8418
貳	-8419
鈐	-8420
銓	-8421
鎰	-8422
駟	-8423
鰲	-8424
鳰	-8425
상	-8426
회	-8427
ů	-8428
ন	-8429
ன	-8430
ื	-8431
俤	-8432
凞	-8433
喃	-8434
庠	-8435
捍	-8436
摑	-8437
攷	-8438
棊	-8439
煨	-8440
瘧	-8441
笵	-8442
舖	-8443
萸	-8444
蚌	-8445
覃	-8446
軕	-8447
邲	-8448
鏈	-8449
鑠	-8450
驅	-8451
鬥	-8452
鶺	-8453
麭	-8454
가	-8455
̝	-8456
յ	-8457
ს	-8458
ᄋ	-8459
∗	-8460
∽	-8461
♠	-8462
ㇱ	-8463
倡	-8464
勰	-8465
嘏	-8466
姬	-8467
嫂	-8468
彤	-8469
愿	-8470
懷	-8471
杙	-8472
杳	-8473
桙	-8474
滁	-8475
滾	-8476
灞	-8477
狎	-8478
綵	-8479
縉	-8480
纈	-8481
諂	-8482
邙	-8483
鞬	-8484
黠	-8485
진	-8486
ү	-8487
ֵ	-8488
য	-8489
└	-8490
乭	-8491
价	-8492
僮	-8493
吋	-8494
唹	-8495
啞	-8496
嚶	-8497
奶	-8498
岻	-8499
崁	-8500
憍	-8501
樣	-8502
洹	-8503
湫	-8504
爐	-8505
珖	-8506
璇	-8507
璣	-8508
穝	-8509
繼	-8510
纜	-8511
膂	-8512
謇	-8513
躋	-8514
鄄	-8515
銈	-8516
靑	-8517
재	-8518
ɟ	-8519
ُ	-8520
ি	-8521
ུ	-8522
ო	-8523
ᄃ	-8524
‌	-8525
∃	-8526
ㇷ	-8527
儿	-8528
卅	-8529
呎	-8530
塼	-8531
壤	-8532
妤	-8533
娟	-8534
婕	-8535
婷	-8536
孁	-8537
拜	-8538
擺	-8539
敎	-8540
曵	-8541
梔	-8542
梭	-8543
泯	-8544
澠	-8545
澧	-8546
璩	-8547
硅	-8548
碣	-8549
祛	-8550
种	-8551
窿	-8552
籙	-8553
耜	-8554
莨	-8555
詵	-8556
賴	-8557
醱	-8558
馘	-8559
騖	-8560
麋	-8561
麥	-8562
齡	-8563
라	-8564
은	-8565
ș	-8566
̃	-8567
ན	-8568
ྱ	-8569
ḫ	-8570
‬	-8571
┣	-8572
嗾	-8573
噸	-8574
壯	-8575
嬶	-8576
崛	-8577
弈	-8578
悖	-8579
憮	-8580
挌	-8581
枉	-8582
栲	-8583
漪	-8584
灃	-8585
狢	-8586
瘰	-8587
癧	-8588
茱	-8589
菏	-8590
裵	-8591
觜	-8592
貉	-8593
逹	-8594
醢	-8595
靉	-8596
颱	-8597
髮	-8598
화	-8599
F	-8600
¦	-8601
ɾ	-8602
ʧ	-8603
ʾ	-8604
ւ	-8605
ׁ	-8606
ە	-8607
ვ	-8608
ᄉ	-8609
ṅ	-8610
∘	-8611
亠	-8612
俐	-8613
兔	-8614
劒	-8615
噫	-8616
囿	-8617
孛	-8618
徇	-8619
恙	-8620
旒	-8621
梼	-8622
棱	-8623
檔	-8624
歐	-8625
沒	-8626
瀲	-8627
煇	-8628
狹	-8629
獎	-8630
珏	-8631
禔	-8632
秬	-8633
篦	-8634
篷	-8635
糕	-8636
纐	-8637
罅	-8638
腆	-8639
苾	-8640
茯	-8641
菠	-8642
褸	-8643
襤	-8644
辦	-8645
迥	-8646
迩	-8647
邾	-8648
鄆	-8649
鉏	-8650
驒	-8651
鴆	-8652
강	-8653
교	-8654
로	-8655
마	-8656
문	-8657
세	-8658
여	-8659
인	-8660
ĕ	-8661
ɲ	-8662
ɸ	-8663
ј	-8664
ֹ	-8665
ṛ	-8666
ệ	-8667
ố	-8668
丿	-8669
伋	-8670
伷	-8671
刄	-8672
勞	-8673
华	-8674
囎	-8675
墩	-8676
嫣	-8677
峒	-8678
抓	-8679
抔	-8680
拂	-8681
掏	-8682
樑	-8683
歲	-8684
毟	-8685
渺	-8686
瀨	-8687
玫	-8688
瘋	-8689
瞠	-8690
竭	-8691
簫	-8692
聽	-8693
蜑	-8694
蟋	-8695
衽	-8696
裲	-8697
覩	-8698
譯	-8699
貽	-8700
蹼	-8701
遏	-8702
郿	-8703
醬	-8704
闌	-8705
陜	-8706
鶚	-8707
요	-8708
유	-8709
󠄁	-8710
ʦ	-8711
थ	-8712
ồ	-8713
ἀ	-8714
‧	-8715
⊥	-8716
个	-8717
仭	-8718
佰	-8719
凖	-8720
奬	-8721
彡	-8722
搔	-8723
槊	-8724
樛	-8725
犨	-8726
琫	-8727
砌	-8728
竦	-8729
簽	-8730
粃	-8731
緡	-8732
羚	-8733
蘐	-8734
裙	-8735
誑	-8736
豉	-8737
醋	-8738
鑛	-8739
隲	-8740
頰	-8741
饂	-8742
두	-8743
부	-8744
비	-8745
̄	-8746
গ	-8747
ব	-8748
ை	-8749
㓛	-8750
丐	-8751
價	-8752
兕	-8753
冩	-8754
囓	-8755
埤	-8756
憨	-8757
摔	-8758
摧	-8759
昀	-8760
棻	-8761
榘	-8762
歟	-8763
泮	-8764
滹	-8765
燒	-8766
畚	-8767
畴	-8768
礽	-8769
綯	-8770
肸	-8771
虓	-8772
蚶	-8773
裘	-8774
豸	-8775
釟	-8776
錡	-8777
隍	-8778
髠	-8779
鯤	-8780
鱇	-8781
鱧	-8782
鶿	-8783
鷄	-8784
麼	-8785
齶	-8786
산	-8787
장	-8788
ъ	-8789
ћ	-8790
ः	-8791
ந	-8792
ᄂ	-8793
ᄒ	-8794
ṯ	-8795
∑	-8796
⊃	-8797
┳	-8798
坌	-8799
埕	-8800
寘	-8801
寞	-8802
巿	-8803
帕	-8804
廙	-8805
弭	-8806
摠	-8807
摶	-8808
撻	-8809
昺	-8810
暾	-8811
氓	-8812
璦	-8813
磑	-8814
磬	-8815
禖	-8816
穽	-8817
簠	-8818
籏	-8819
罌	-8820
羕	-8821
腥	-8822
觚	-8823
諛	-8824
跗	-8825
郫	-8826
酘	-8827
釆	-8828
銷	-8829
靏	-8830
驩	-8831
髀	-8832
鬲	-8833
魹	-8834
鮟	-8835
당	-8836
바	-8837
﨟	-8838
ź	-8839
ө	-8840
տ	-8841
ख	-8842
জ	-8843
়	-8844
ய	-8845
ญ	-8846
ེ	-8847
┗	-8848
♣	-8849
亂	-8850
估	-8851
僥	-8852
决	-8853
咢	-8854
媓	-8855
媯	-8856
媾	-8857
孀	-8858
宀	-8859
嵓	-8860
幺	-8861
悋	-8862
攄	-8863
桎	-8864
楪	-8865
樾	-8866
檢	-8867
汨	-8868
瀰	-8869
熲	-8870
瘙	-8871
皷	-8872
粢	-8873
臉	-8874
莊	-8875
藐	-8876
蚝	-8877
蝴	-8878
覓	-8879
覿	-8880
谺	-8881
跎	-8882
鄔	-8883
險	-8884
騾	-8885
鼂	-8886
계	-8887
방	-8888
배	-8889
연	-8890
호	-8891
ǒ	-8892
ண	-8893
ả	-8894
∫	-8895
亰	-8896
伃	-8897
侖	-8898
卻	-8899
围	-8900
埈	-8901
媞	-8902
弢	-8903
徸	-8904
怩	-8905
懦	-8906
擴	-8907
晗	-8908
梏	-8909
棧	-8910
椽	-8911
殼	-8912
氂	-8913
淪	-8914
滏	-8915
犇	-8916
猯	-8917
琚	-8918
璠	-8919
瓷	-8920
癆	-8921
硼	-8922
笨	-8923
紵	-8924
綠	-8925
縢	-8926
芿	-8927
莿	-8928
薈	-8929
藜	-8930
藥	-8931
螳	-8932
蟆	-8933
蟬	-8934
覡	-8935
訖	-8936
蹕	-8937
蹻	-8938
鄞	-8939
鰈	-8940
鱸	-8941
군	-8942
양	-8943
중	-8944
현	-8945
ġ	-8946
մ	-8947
ᄌ	-8948
ᅮ	-8949
⋯	-8950
倆	-8951
倢	-8952
倧	-8953
偸	-8954
冦	-8955
增	-8956
宧	-8957
尔	-8958
廢	-8959
彥	-8960
忯	-8961
忸	-8962
悧	-8963
慚	-8964
搜	-8965
擇	-8966
擧	-8967
敕	-8968
晚	-8969
沆	-8970
澍	-8971
灝	-8972
煒	-8973
煦	-8974
牀	-8975
猖	-8976
珙	-8977
硤	-8978
碎	-8979
礱	-8980
箝	-8981
縵	-8982
繡	-8983
羋	-8984
耨	-8985
肅	-8986
茴	-8987
薌	-8988
褹	-8989
迸	-8990
郄	-8991
錺	-8992
鑫	-8993
韙	-8994
驁	-8995
鬮	-8996
鱓	-8997
黥	-8998
급	-8999
위	-9000
종	-9001
치	-9002
ɴ	-9003
ʁ	-9004
̯	-9005
ә	-9006
ս	-9007
ฟ	-9008
ྲ	-9009
თ	-9010
ᅡ	-9011
ᅩ	-9012
ậ	-9013
ỉ	-9014
‡	-9015
ゔ	-9016
ヾ	-9017
仿	-9018
佻	-9019
俔	-9020
凭	-9021
咖	-9022
哇	-9023
嗤	-9024
嘎	-9025
嚳	-9026
垈	-9027
塤	-9028
壢	-9029
夘	-9030
孽	-9031
峩	-9032
崍	-9033
巓	-9034
徑	-9035
捶	-9036
昝	-9037
昪	-9038
晝	-9039
檍	-9040
气	-9041
洟	-9042
湮	-9043
溧	-9044
潙	-9045
灊	-9046
焯	-9047
獸	-9048
琊	-9049
禛	-9050
窴	-9051
筱	-9052
篮	-9053
粁	-9054
腮	-9055
苡	-9056
蕷	-9057
蠖	-9058
衑	-9059
袒	-9060
裹	-9061
覊	-9062
訇	-9063
豕	-9064
跑	-9065
遲	-9066
鄕	-9067
鍜	-9068
鐶	-9069
鬬	-9070
鱠	-9071
鱲	-9072
鶲	-9073
齣	-9074
龠	-9075
관	-9076
노	-9077
단	-9078
석	-9079
안	-9080
에	-9081
¿	-9082
ɯ	-9083
ʕ	-9084
उ	-9085
দ	-9086
്	-9087
็	-9088
ị	-9089
⊗	-9090
├	-9091
▶	-9092
东	-9093
伉	-9094
佯	-9095
吳	-9096
嘶	-9097
坵	-9098
垪	-9099
塒	-9100
姞	-9101
彳	-9102
忖	-9103
怙	-9104
悄	-9105
戩	-9106
戲	-9107
抬	-9108
揣	-9109
步	-9110
殘	-9111
澮	-9112
濹	-9113
炅	-9114
牂	-9115
獗	-9116
獦	-9117
珣	-9118
璝	-9119
瓌	-9120
甬	-9121
盱	-9122
稹	-9123
翽	-9124
胛	-9125
臑	-9126
莇	-9127
薑	-9128
蜩	-9129
褫	-9130
譞	-9131
譫	-9132
豌	-9133
赛	-9134
鄖	-9135
鉧	-9136
餝	-9137
餮	-9138
饕	-9139
鯔	-9140
麛	-9141
齕	-9142
龙	-9143
남	-9144
명	-9145
보	-9146
제	-9147
ɐ	-9148
կ	-9149
ך	-9150
आ	-9151
ে	-9152
ழ	-9153
ூ	-9154
ே	-9155
ు	-9156
్	-9157
ซ	-9158
ბ	-9159
ᅳ	-9160
ọ	-9161
⋅	-9162
➡	-9163
厂	-9164
厶	-9165
垳	-9166
堃	-9167
夊	-9168
宓	-9169
嵋	-9170
嶂	-9171
恚	-9172
扣	-9173
擎	-9174
攴	-9175
晉	-9176
曩	-9177
枓	-9178
枸	-9179
柢	-9180
榻	-9181
橦	-9182
淙	-9183
湄	-9184
牁	-9185
璆	-9186
睥	-9187
箟	-9188
絓	-9189
网	-9190
翩	-9191
肓	-9192
荅	-9193
莪	-9194
蓁	-9195
蕈	-9196
螽	-9197
覽	-9198
詒	-9199
賚	-9200
赧	-9201
跟	-9202
郛	-9203
鄠	-9204
銹	-9205
鋹	-9206
鐏	-9207
鑵	-9208
阡	-9209
陬	-9210
驎	-9211
鶫	-9212
黏	-9213
龢	-9214
랑	-9215
무	-9216
미	-9217
차	-9218
철	-9219
초	-9220
태	-9221
հ	-9222
ত	-9223
ా	-9224
ක	-9225
း	-9226
ን	-9227
ộ	-9228
ớ	-9229
僦	-9230
勱	-9231
呀	-9232
哪	-9233
嚙	-9234
圦	-9235
妣	-9236
嫄	-9237
它	-9238
廾	-9239
愨	-9240
掤	-9241
曻	-9242
枦	-9243
柝	-9244
查	-9245
柬	-9246
樞	-9247
橫	-9248
汧	-9249
泻	-9250
濛	-9251
烤	-9252
熄	-9253
玢	-9254
珝	-9255
电	-9256
痤	-9257
祆	-9258
糲	-9259
糴	-9260
紞	-9261
羇	-9262
腳	-9263
芎	-9264
蓴	-9265
藎	-9266
虨	-9267
蛄	-9268
蛞	-9269
螭	-9270
豳	-9271
跣	-9272
蹤	-9273
軹	-9274
迯	-9275
酇	-9276
酣	-9277
陴	-9278
鞣	-9279
韭	-9280
顏	-9281
鰕	-9282
鴣	-9283
鷓	-9284
鼡	-9285
거	-9286
그	-9287
모	-9288
삼	-9289
을	-9290
임	-9291
ų	-9292
ɨ	-9293
̍	-9294
ї	-9295
ұ	-9296
ई	-9297
ற	-9298
ோ	-9299
ర	-9300
།	-9301
ཁ	-9302
მ	-9303
ር	-9304
‪	-9305
▷	-9306
ㇰ	-9307
僣	-9308
厰	-9309
叺	-9310
咏	-9311
喁	-9312
噠	-9313
垝	-9314
夂	-9315
嬀	-9316
崤	-9317
嶝	-9318
嶢	-9319
幷	-9320
怛	-9321
悝	-9322
惶	-9323
擠	-9324
擯	-9325
斫	-9326
晙	-9327
曦	-9328
杠	-9329
桒	-9330
歡	-9331
歷	-9332
每	-9333
熬	-9334
燠	-9335
琀	-9336
瑫	-9337
瘠	-9338
癘	-9339
眇	-9340
眙	-9341
矍	-9342
筲	-9343
綟	-9344
緱	-9345
翎	-9346
蓆	-9347
蓍	-9348
虬	-9349
蚯	-9350
蜈	-9351
蝓	-9352
謦	-9353
豢	-9354
邴	-9355
醵	-9356
鎣	-9357
霑	-9358
霾	-9359
髢	-9360
鬩	-9361
鬪	-9362
鮹	-9363
鯏	-9364
黝	-9365
鼾	-9366
달	-9367
복	-9368
소	-9369
용	-9370
ĝ	-9371
į	-9372
ʌ	-9373
͡	-9374
գ	-9375
ץ	-9376
ল	-9377
স	-9378
হ	-9379
ু	-9380
ల	-9381
უ	-9382
ᅢ	-9383
ᅥ	-9384
ế	-9385
∝	-9386
␣	-9387
✕	-9388
〓	-9389
〱	-9390
佉	-9391
偐	-9392
兢	-9393
呷	-9394
嚈	-9395
嚭	-9396
囗	-9397
塌	-9398
墅	-9399
墊	-9400
壑	-9401
婬	-9402
尞	-9403
峽	-9404
帙	-9405
廐	-9406
彈	-9407
彜	-9408
彠	-9409
战	-9410
搨	-9411
晳	-9412
栻	-9413
殭	-9414
涕	-9415
潢	-9416
灑	-9417
猨	-9418
玝	-9419
痾	-9420
篶	-9421
紈	-9422
縱	-9423
繖	-9424
肭	-9425
膃	-9426
舉	-9427
菻	-9428
蒂	-9429
蒨	-9430
蓚	-9431
薭	-9432
蘖	-9433
蚓	-9434
蚣	-9435
蟀	-9436
蠻	-9437
衵	-9438
袰	-9439
覈	-9440
貮	-9441
賾	-9442
逯	-9443
鄜	-9444
鏐	-9445
隱	-9446
顚	-9447
饃	-9448
鯊	-9449
鯢	-9450
鵑	-9451
래	-9452
버	-9453
승	-9454
천	-9455
최	-9456
코	-9457
	-9458
ĩ	-9459
ț	-9460
̥	-9461
қ	-9462
ِ	-9463
ۇ	-9464
ক	-9465
প	-9466
າ	-9467
ᄊ	-9468
ề	-9469
ờ	-9470
‒	-9471
ↄ	-9472
∆	-9473
⚪	-9474
ㇽ	-9475
㐌	-9476
亅	-9477
佈	-9478
匄	-9479
匏	-9480
唎	-9481
寤	-9482
嶧	-9483
彖	-9484
徼	-9485
忞	-9486
惻	-9487
撅	-9488
擶	-9489
柒	-9490
栁	-9491
榷	-9492
樔	-9493
欉	-9494
歹	-9495
殳	-9496
泝	-9497
滂	-9498
滷	-9499
焰	-9500
牴	-9501
玘	-9502
珧	-9503
珱	-9504
瑄	-9505
瑰	-9506
璵	-9507
瓮	-9508
痞	-9509
瘟	-9510
盦	-9511
眦	-9512
窗	-9513
綢	-9514
繝	-9515
繧	-9516
聃	-9517
膊	-9518
茵	-9519
菽	-9520
薹	-9521
袤	-9522
褰	-9523
說	-9524
貅	-9525
貔	-9526
贍	-9527
贓	-9528
跖	-9529
郾	-9530
鄮	-9531
鉃	-9532
鋠	-9533
鑄	-9534
阳	-9535
隶	-9536
雯	-9537
靍	-9538
頎	-9539
駛	-9540
麪	-9541
黶	-9542
鼯	-9543
齒	-9544
니	-9545
야	-9546
음	-9547
읍	-9548
𤢖	-9549
ʎ	-9550
բ	-9551
զ	-9552
ף	-9553
ި	-9554
ী	-9555
ள	-9556
ి	-9557
್	-9558
ฒ	-9559
པ	-9560
ძ	-9561
ᅣ	-9562
ᅦ	-9563
ḻ	-9564
∖	-9565
⌒	-9566
〽	-9567
ㇾ	-9568
㔨	-9569
业	-9570
从	-9571
倜	-9572
僂	-9573
儆	-9574
别	-9575
匚	-9576
哆	-9577
唵	-9578
团	-9579
圈	-9580
垰	-9581
堈	-9582
尅	-9583
廸	-9584
徯	-9585
忝	-9586
恊	-9587
慥	-9588
捥	-9589
搖	-9590
敝	-9591
斷	-9592
旉	-9593
昫	-9594
棭	-9595
毐	-9596
沉	-9597
漾	-9598
炤	-9599
熒	-9600
爿	-9601
牯	-9602
玳	-9603
瓣	-9604
產	-9605
癜	-9606
皚	-9607
眾	-9608
瞎	-9609
碰	-9610
粭	-9611
纛	-9612
罡	-9613
罽	-9614
联	-9615
脘	-9616
脯	-9617
腦	-9618
膩	-9619
苹	-9620
茛	-9621
菇	-9622
菑	-9623
蔕	-9624
薰	-9625
蛻	-9626
蠹	-9627
覘	-9628
貓	-9629
釿	-9630
隹	-9631
鶸	-9632
鷽	-9633
麑	-9634
간	-9635
공	-9636
디	-9637
레	-9638
법	-9639
병	-9640
송	-9641
식	-9642
예	-9643
왕	-9644
운	-9645
울	-9646
토	-9647
환	-9648
희	-9649
󠄀	-9650
ĥ	-9651
ĭ	-9652
ŝ	-9653
ű	-9654
ܐ	-9655
ް	-9656
ँ	-9657
ए	-9658
ठ	-9659
ै	-9660
ौ	-9661
শ	-9662
ผ	-9663
ཞ	-9664
ླ	-9665
ᅧ	-9666
ት	-9667
ầ	-9668
‍	-9669
∉	-9670
∥	-9671
♦	-9672
❤	-9673
〰	-9674
㺭	-9675
仂	-9676
仞	-9677
侊	-9678
冫	-9679
剗	-9680
剡	-9681
匋	-9682
吧	-9683
咱	-9684
噤	-9685
囉	-9686
堊	-9687
壓	-9688
夬	-9689
奵	-9690
娛	-9691
嫪	-9692
嫮	-9693
嬾	-9694
嵊	-9695
帮	-9696
幤	-9697
恠	-9698
愃	-9699
愰	-9700
慙	-9701
戶	-9702
挒	-9703
搶	-9704
昻	-9705
暄	-9706
曮	-9707
极	-9708
枌	-9709
枘	-9710
枻	-9711
档	-9712
棡	-9713
槵	-9714
檉	-9715
殞	-9716
毳	-9717
沭	-9718
洧	-9719
洺	-9720
漯	-9721
濶	-9722
牓	-9723
甃	-9724
畧	-9725
癭	-9726
皀	-9727
糶	-9728
絮	-9729
緖	-9730
缽	-9731
罩	-9732
翆	-9733
膅	-9734
苏	-9735
苳	-9736
荂	-9737
荳	-9738
菸	-9739
蓊	-9740
蓜	-9741
薤	-9742
蘢	-9743
螻	-9744
衜	-9745
袚	-9746
謠	-9747
譔	-9748
踐	-9749
輒	-9750
輞	-9751
车	-9752
遑	-9753
邡	-9754
釀	-9755
鉀	-9756
鑪	-9757
隰	-9758
顫	-9759
駑	-9760
驗	-9761
鯇	-9762
鰱	-9763
鳧	-9764
鵟	-9765
鷀	-9766
鷂	-9767
鸛	-9768
麸	-9769
드	-9770
씨	-9771
윤	-9772
저	-9773
창	-9774
황	-9775
𥝱	-9776
ǰ	-9777
ʼ	-9778
ˑ	-9779
ў	-9780
վ	-9781
ْ	-9782
ھ	-9783
އ	-9784
घ	-9785
ਰ	-9786
ਾ	-9787
ங	-9788
ெ	-9789
ใ	-9790
๊	-9791
ນ	-9792
ု	-9793
ქ	-9794
ᅌ	-9795
ᅭ	-9796
‭	-9797
ⴰ	-9798
倻	-9799
冂	-9800
军	-9801
剔	-9802
匸	-9803
厔	-9804
吞	-9805
啡	-9806
坻	-9807
埣	-9808
壒	-9809
壠	-9810
妺	-9811
娣	-9812
媄	-9813
嫻	-9814
宁	-9815
屛	-9816
峭	-9817
帑	-9818
廝	-9819
怕	-9820
慳	-9821
捋	-9822
擊	-9823
擤	-9824
攙	-9825
昤	-9826
晢	-9827
朐	-9828
栜	-9829
栫	-9830
椪	-9831
楣	-9832
樁	-9833
櫲	-9834
汙	-9835
泔	-9836
湜	-9837
潛	-9838
烋	-9839
爼	-9840
獬	-9841
獵	-9842
玹	-9843
珅	-9844
畊	-9845
疔	-9846
痲	-9847
瘞	-9848
癈	-9849
癰	-9850
盩	-9851
眕	-9852
碟	-9853
磴	-9854
祏	-9855
祕	-9856
穉	-9857
窋	-9858
窣	-9859
窰	-9860
竒	-9861
簝	-9862
籹	-9863
粔	-9864
縠	-9865
罨	-9866
羔	-9867
翺	-9868
耻	-9869
胼	-9870
膈	-9871
苣	-9872
茌	-9873
荖	-9874
蟯	-9875
觸	-9876
誐	-9877
躡	-9878
适	-9879
逋	-9880
遒	-9881
邌	-9882
郕	-9883
鄣	-9884
釭	-9885
釼	-9886
鈇	-9887
鈩	-9888
鉚	-9889
鏘	-9890
鑷	-9891
霨	-9892
韵	-9893
驊	-9894
髎	-9895
鯡	-9896
鴿	-9897
鹼	-9898
黻	-9899
鼉	-9900
는	-9901
생	-9902
열	-9903
옥	-9904
옷	-9905
크	-9906
타	-9907
후	-9908
훈	-9909
ĉ	-9910
ĵ	-9911
ņ	-9912
ǧ	-9913
ɦ	-9914
̊	-9915
լ	-9916
ֲ	-9917
ެ	-9918
फ	-9919
ृ	-9920
ণ	-9921
వ	-9922
ರ	-9923
ວ	-9924
ະ	-9925
ཆ	-9926
ᄆ	-9927
ᄏ	-9928
ᄐ	-9929
ᅲ	-9930
በ	-9931
ា	-9932
ắ	-9933
ὐ	-9934
‹	-9935
›	-9936
∟	-9937
│	-9938
┐	-9939
┬	-9940
丫	-9941
仡	-9942
偁	-9943
凩	-9944
刮	-9945
劓	-9946
厙	-9947
售	-9948
喻	-9949
噯	-9950
夸	-9951
妮	-9952
嫐	-9953
宫	-9954
岵	-9955
崆	-9956
幫	-9957
廋	-9958
异	-9959
彘	-9960
懍	-9961
懽	-9962
攤	-9963
昞	-9964
昰	-9965
晫	-9966
术	-9967
梦	-9968
楹	-9969
橅	-9970
檐	-9971
氵	-9972
洄	-9973
涂	-9974
湃	-9975
漓	-9976
炆	-9977
犭	-9978
狻	-9979
獐	-9980
珽	-9981
瑝	-9982
璨	-9983
瘀	-9984
皙	-9985
碆	-9986
禑	-9987
竊	-9988
篪	-9989
粿	-9990
絇	-9991
絕	-9992
綦	-9993
繃	-9994
繦	-9995
级	-9996
羮	-9997
胄	-9998
苕	-9999
莧	-10000
蓂	-10001
蔔	-10002
薏	-10003
虵	-10004
蜍	-10005
蠶	-10006
裄	-10007
襪	-10008
视	-10009
譏	-10010
賻	-10011
跫	-10012
蹔	-10013
輟	-10014
轎	-10015
轘	-10016
辵	-10017
邠	-10018
郇	-10019
鉇	-10020
鉷	-10021
錄	-10022
鐃	-10023
閿	-10024
鞦	-10025
頵	-10026
颺	-10027
骰	-10028
骶	-10029
鰆	-10030
鰡	-10031
鰰	-10032
鱏	-10033
鱼	-10034
鷟	-10035
黜	-10036
黯	-10037
龝	-10038
갑	-10039
게	-10040
과	-10041
권	-10042
내	-10043
루	-10044
발	-10045
본	-10046
순	-10047
심	-10048
쌍	-10049
역	-10050
와	-10051
응	-10052
즈	-10053
청	-10054
카	-10055
키	-10056
피	-10057
행	-10058
홍	-10059
히	-10060
ũ	-10061
ƕ	-10062
ɫ	-10063
ʹ	-10064
̂	-10065
պ	-10066
ؤ	-10067
ञ	-10068
অ	-10069
ট	-10070
ধ	-10071
ਿ	-10072
ੰ	-10073
క	-10074
న	-10075
ప	-10076
ා	-10077
ฎ	-10078
ฑ	-10079
ฤ	-10080
ฬ	-10081
ລ	-10082
ཀ	-10083
ཕ	-10084
ཚ	-10085
ྒ	-10086
გ	-10087
ტ	-10088
ᄎ	-10089
ᄑ	-10090
ᄫ	-10091
ᅤ	-10092
ᅨ	-10093
ባ	-10094
እ	-10095
ᠠ	-10096
ḇ	-10097
ứ	-10098
ἐ	-10099
ἰ	-10100
ῦ	-10101
₤	-10102
∓	-10103
∵	-10104
┌	-10105
┼	-10106
◦	-10107
◾	-10108
☓	-10109
♨	-10110
♩	-10111
ゕ	-10112
丗	-10113
亚	-10114
亹	-10115
仆	-10116
伜	-10117
佺	-10118
佾	-10119
侫	-10120
俞	-10121
倓	-10122
傪	-10123
僵	-10124
儉	-10125
冖	-10126
凵	-10127
剴	-10128
务	-10129
劻	-10130
勸	-10131
勹	-10132
卨	-10133
卩	-10134
啤	-10135
啾	-10136
嗩	-10137
嗶	-10138
垙	-10139
塱	-10140
壘	-10141
奯	-10142
姤	-10143
婧	-10144
嬃	-10145
寀	-10146
寢	-10147
尠	-10148
庲	-10149
弍	-10150
愆	-10151
扛	-10152
扠	-10153
找	-10154
抖	-10155
拆	-10156
挵	-10157
擣	-10158
擥	-10159
攵	-10160
敍	-10161
旼	-10162
晷	-10163
朏	-10164
杪	-10165
标	-10166
椥	-10167
楝	-10168
榦	-10169
榲	-10170
槁	-10171
橖	-10172
殄	-10173
泙	-10174
溫	-10175
溷	-10176
滃	-10177
滯	-10178
潾	-10179
澡	-10180
炷	-10181
煖	-10182
煞	-10183
犧	-10184
珩	-10185
瓛	-10186
甞	-10187
皰	-10188
盔	-10189
礀	-10190
簞	-10191
羸	-10192
聵	-10193
芩	-10194
莟	-10195
菷	-10196
蒄	-10197
蓨	-10198
蕚	-10199
蘓	-10200
蜒	-10201
蠔	-10202
衲	-10203
褘	-10204
覬	-10205
諝	-10206
諟	-10207
跤	-10208
轂	-10209
郟	-10210
釤	-10211
錻	-10212
鍑	-10213
鎺	-10214
鐫	-10215
鑊	-10216
阝	-10217
际	-10218
陔	-10219
雩	-10220
霎	-10221
霫	-10222
韆	-10223
韴	-10224
飳	-10225
餠	-10226
餢	-10227
饑	-10228
駭	-10229
駰	-10230
騁	-10231
騤	-10232
髟	-10233
鬻	-10234
鵐	-10235
鵙	-10236
鷭	-10237
龑	-10238
날	-10239
년	-10240
러	-10241
령	-10242
말	-10243
북	-10244
살	-10245
설	-10246
으	-10247
트	-10248
파	-10249
평	-10250
포	-10251
혜	-10252
P	-10253
ď	-10254
ļ	-10255
ǁ	-10256
ʽ	-10257
ˋ	-10258
̀	-10259
ϝ	-10260
ң	-10261
դ	-10262
ք	-10263
ہ	-10264
ܪ	-10265
छ	-10266
ढ	-10267
চ	-10268
ভ	-10269
ા	-10270
્	-10271
ஆ	-10272
ద	-10273
మ	-10274
ര	-10275
ി	-10276
ฐ	-10277
ึ	-10278
ྡ	-10279
င	-10280
လ	-10281
ာ	-10282
်	-10283
დ	-10284
შ	-10285
ხ	-10286
ᄡ	-10287
ህ	-10288
ለ	-10289
ብ	-10290
ነ	-10291
የ	-10292
ḷ	-10293
ủ	-10294
ự	-10295
≅	-10296
♫	-10297
♮	-10298
ⵉ	-10299
ㇺ	-10300
㐂	-10301
㐧	-10302
㬎	-10303
义	-10304
乢	-10305
亊	-10306
仟	-10307
俰	-10308
傻	-10309
僰	-10310
儕	-10311
刕	-10312
劑	-10313
勵	-10314
匀	-10315
卆	-10316
卽	-10317
嗎	-10318
嗔	-10319
圩	-10320
坧	-10321
埗	-10322
塲	-10323
塽	-10324
墮	-10325
夲	-10326
妝	-10327
姊	-10328
姮	-10329
婀	-10330
婪	-10331
导	-10332
尢	-10333
屆	-10334
屢	-10335
崴	-10336
嶬	-10337
悰	-10338
惔	-10339
惱	-10340
懂	-10341
捃	-10342
捫	-10343
揀	-10344
撿	-10345
攽	-10346
昜	-10347
曆	-10348
杤	-10349
杬	-10350
柁	-10351
柤	-10352
楛	-10353
榆	-10354
槲	-10355
欈	-10356
殀	-10357
泚	-10358
洎	-10359
浿	-10360
淖	-10361
淚	-10362
湳	-10363
潡	-10364
澆	-10365
濉	-10366
濩	-10367
灄	-10368
炘	-10369
炟	-10370
燏	-10371
犛	-10372
犴	-10373
狀	-10374
玥	-10375
玦	-10376
珮	-10377
琠	-10378
璹	-10379
瓩	-10380
畹	-10381
疊	-10382
癤	-10383
癶	-10384
皁	-10385
睚	-10386
睟	-10387
硲	-10388
礻	-10389
秧	-10390
稃	-10391
窶	-10392
箜	-10393
篌	-10394
簔	-10395
籖	-10396
糄	-10397
糝	-10398
紱	-10399
絛	-10400
縑	-10401
脷	-10402
芈	-10403
荑	-10404
蓀	-10405
虍	-10406
虛	-10407
虺	-10408
蜊	-10409
蠧	-10410
袙	-10411
袮	-10412
褞	-10413
襾	-10414
觝	-10415
訾	-10416
諠	-10417
諴	-10418
语	-10419
跆	-10420
踢	-10421
躪	-10422
辶	-10423
远	-10424
鄚	-10425
酺	-10426
鋩	-10427
鏺	-10428
鏻	-10429
钢	-10430
闈	-10431
门	-10432
队	-10433
陷	-10434
顱	-10435
飮	-10436
馺	-10437
駸	-10438
马	-10439
鯣	-10440
鰂	-10441
鱝	-10442
鵆	-10443
鶩	-10444
鶵	-10445
黹	-10446
黼	-10447
鼇	-10448
齮	-10449
개	-10450
까	-10451
네	-10452
녀	-10453
독	-10454
목	-10455
백	-10456
봉	-10457
색	-10458
암	-10459
월	-10460
준	-10461
터	-10462
통	-10463
티	-10464
프	-10465
H	-10466
ċ	-10467
ǫ	-10468
ɘ	-10469
ɬ	-10470
ˆ	-10471
ϊ	-10472
ϸ	-10473
ғ	-10474
թ	-10475
ց	-10476
ܫ	-10477
ހ	-10478
ঙ	-10479
ষ	-10480
ਨ	-10481
ਲ	-10482
દ	-10483
త	-10484
ದ	-10485
ಲ	-10486
ು	-10487
പ	-10488
ර	-10489
ฉ	-10490
฿	-10491
ຊ	-10492
ྷ	-10493
မ	-10494
ရ	-10495
ိ	-10496
ေ	-10497
္	-10498
ფ	-10499
ც	-10500
ᅙ	-10501
ል	-10502
ራ	-10503
ሰ	-10504
ያ	-10505
ក	-10506
រ	-10507
ḗ	-10508
ấ	-10509
ử	-10510
ὶ	-10511
ῖ	-10512
ῥ	-10513
‚	-10514
⊢	-10515
┓	-10516
ⵏ	-10517
ㇻ	-10518
㕎	-10519
佘	-10520
佝	-10521
俾	-10522
倬	-10523
关	-10524
剕	-10525
动	-10526
呢	-10527
呱	-10528
唳	-10529
啻	-10530
噓	-10531
园	-10532
圮	-10533
堨	-10534
婼	-10535
媳	-10536
嫖	-10537
嬋	-10538
寚	-10539
崕	-10540
嵎	-10541
嶹	-10542
巋	-10543
巵	-10544
帾	-10545
廛	-10546
廴	-10547
彑	-10548
很	-10549
徵	-10550
忒	-10551
忩	-10552
您	-10553
愬	-10554
懴	-10555
戳	-10556
扨	-10557
摎	-10558
擘	-10559
擻	-10560
擽	-10561
敒	-10562
暨	-10563
朵	-10564
枛	-10565
桛	-10566
梻	-10567
楤	-10568
橐	-10569
檑	-10570
欏	-10571
歧	-10572
殂	-10573
汛	-10574
洼	-10575
洿	-10576
渲	-10577
渼	-10578
湉	-10579
湞	-10580
滙	-10581
熿	-10582
璈	-10583
璫	-10584
甝	-10585
畡	-10586
畬	-10587
痿	-10588
皈	-10589
盌	-10590
盜	-10591
盼	-10592
磻	-10593
禋	-10594
笋	-10595
篓	-10596
粵	-10597
糫	-10598
絎	-10599
綉	-10600
緄	-10601
緜	-10602
繒	-10603
繙	-10604
纘	-10605
维	-10606
缻	-10607
腊	-10608
膕	-10609
膻	-10610
臾	-10611
舸	-10612
芟	-10613
苜	-10614
莓	-10615
莠	-10616
萵	-10617
蒺	-10618
蓏	-10619
蓿	-10620
蔘	-10621
蕋	-10622
蘅	-10623
虧	-10624
虯	-10625
蚡	-10626
蚪	-10627
蚵	-10628
蜓	-10629
蝟	-10630
蝤	-10631
螯	-10632
蟒	-10633
蠊	-10634
褧	-10635
詝	-10636
说	-10637
軺	-10638
辧	-10639
运	-10640
迺	-10641
邶	-10642
醯	-10643
鈀	-10644
鈸	-10645
鉥	-10646
鋓	-10647
鍚	-10648
鏖	-10649
鏥	-10650
鏱	-10651
钁	-10652
陈	-10653
隃	-10654
颶	-10655
餛	-10656
馱	-10657
騄	-10658
骼	-10659
髁	-10660
髃	-10661
髆	-10662
髞	-10663
魋	-10664
鮃	-10665
鮄	-10666
鮐	-10667
鯯	-10668
鰣	-10669
鰮	-10670
鱚	-10671
鱮	-10672
鵩	-10673
鵷	-10674
鶇	-10675
麈	-10676
광	-10677
굴	-10678
귀	-10679
규	-10680
길	-10681
꽃	-10682
된	-10683
둑	-10684
려	-10685
류	-10686
물	-10687
반	-10688
밥	-10689
빠	-10690
손	-10691
엔	-10692
외	-10693
워	-10694
육	-10695
읃	-10696
찾	-10697
총	-10698
탁	-10699
특	-10700
판	-10701
️	-10702
𓇋	-10703
𓏤	-10704
¶	-10705
ƀ	-10706
ɕ	-10707
ɖ	-10708
ʀ	-10709
ʏ	-10710
ʐ	-10711
ʝ	-10712
ʤ	-10713
ˇ	-10714
˔	-10715
̅	-10716
є	-10717
љ	-10718
շ	-10719
ֱ	-10720
ֿ	-10721
،	-10722
ڠ	-10723
ڭ	-10724
ܘ	-10725
ܠ	-10726
ܡ	-10727
ގ	-10728
ސ	-10729
ާ	-10730
ޭ	-10731
ং	-10732
ੀ	-10733
ત	-10734
ી	-10735
அ	-10736
ஞ	-10737
ஷ	-10738
ீ	-10739
గ	-10740
ీ	-10741
ಕ	-10742
ಪ	-10743
ವ	-10744
ಾ	-10745
ಿ	-10746
യ	-10747
ാ	-10748
්	-10749
ฆ	-10750
ฮ	-10751
ཡ	-10752
ပ	-10753
ီ	-10754
ံ	-10755
ြ	-10756
ᄁ	-10757
ᄚ	-10758
ᅬ	-10759
ᆪ	-10760
ም	-10761
ስ	-10762
ቅ	-10763
ዝ	-10764
ᐃ	-10765
ស	-10766
្	-10767
ḏ	-10768
ở	-10769
ữ	-10770
ἄ	-10771
ὑ	-10772
ὰ	-10773
‛	-10774
‟	-10775
≃	-10776
⌊	-10777
◉	-10778
☿	-10779
♢	-10780
ⵓ	-10781
ㄨ	-10782
ㇼ	-10783
ㇿ	-10784
䍺	-10785
䑓	-10786
伟	-10787
佔	-10788
侁	-10789
侔	-10790
俩	-10791
傣	-10792
傴	-10793
僙	-10794
兰	-10795
农	-10796
况	-10797
冼	-10798
刖	-10799
勐	-10800
勔	-10801
卫	-10802
卲	-10803
发	-10804
叮	-10805
吴	-10806
哦	-10807
唊	-10808
嗑	-10809
嗲	-10810
噎	-10811
噬	-10812
嚏	-10813
垕	-10814
垜	-10815
塰	-10816
墘	-10817
夋	-10818
复	-10819
姈	-10820
娀	-10821
娵	-10822
嫺	-10823
孑	-10824
寉	-10825
尟	-10826
崚	-10827
巘	-10828
巛	-10829
师	-10830
廌	-10831
彁	-10832
徃	-10833
怎	-10834
悽	-10835
戞	-10836
扆	-10837
挧	-10838
捔	-10839
掫	-10840
揥	-10841
搓	-10842
摃	-10843
撕	-10844
旂	-10845
旄	-10846
旡	-10847
时	-10848
晈	-10849
暻	-10850
曈	-10851
杌	-10852
杦	-10853
枎	-10854
枪	-10855
梲	-10856
棐	-10857
棼	-10858
椨	-10859
榁	-10860
榭	-10861
橛	-10862
檫	-10863
櫪	-10864
殃	-10865
氹	-10866
汊	-10867
沪	-10868
沬	-10869
浞	-10870
淅	-10871
淯	-10872
溏	-10873
溱	-10874
漚	-10875
漼	-10876
潑	-10877
濼	-10878
灬	-10879
灶	-10880
烘	-10881
热	-10882
煆	-10883
煚	-10884
燉	-10885
燴	-10886
牖	-10887
狠	-10888
獼	-10889
瑱	-10890
瓤	-10891
痼	-10892
瘂	-10893
瘭	-10894
眄	-10895
眥	-10896
矼	-10897
砭	-10898
碚	-10899
磺	-10900
穌	-10901
篙	-10902
簍	-10903
簎	-10904
紕	-10905
緇	-10906
纉	-10907
线	-10908
罟	-10909
羃	-10910
耋	-10911
膁	-10912
艹	-10913
节	-10914
荐	-10915
菡	-10916
萏	-10917
葅	-10918
蕓	-10919
蕘	-10920
蕺	-10921
薁	-10922
蘧	-10923
蛑	-10924
蜺	-10925
蝌	-10926
蝯	-10927
螟	-10928
蟜	-10929
蟶	-10930
蠑	-10931
袠	-10932
褓	-10933
话	-10934
豲	-10935
賡	-10936
贏	-10937
轜	-10938
逾	-10939
遞	-10940
鄉	-10941
鄷	-10942
酆	-10943
鉊	-10944
鉐	-10945
銳	-10946
鍝	-10947
鏦	-10948
鐇	-10949
银	-10950
锦	-10951
长	-10952
閶	-10953
隉	-10954
頹	-10955
飈	-10956
餜	-10957
馆	-10958
髓	-10959
魈	-10960
魘	-10961
鯒	-10962
鯥	-10963
鰄	-10964
鰉	-10965
鱉	-10966
鱘	-10967
鲜	-10968
鵼	-10969
鷆	-10970
麬	-10971
각	-10972
걸	-10973
것	-10974
금	-10975
님	-10976
더	-10977
데	-10978
들	-10979
락	-10980
란	-10981
력	-10982
렬	-10983
률	-10984
를	-10985
머	-10986
벌	-10987
범	-10988
별	-10989
붉	-10990
브	-10991
빈	-10992
새	-10993
쓰	-10994
윽	-10995
좋	-10996
쪽	-10997
축	-10998
춘	-10999
충	-11000
커	-11001
합	-11002
효	-11003
흥	-11004
𣉙	-11005
𥻨	-11006
R	-11007
¤	-11008
ŗ	-11009
ŷ	-11010
ƿ	-11011
ǚ	-11012
ǣ	-11013
ȝ	-11014
ɚ	-11015
ɤ	-11016
ɹ	-11017
ɽ	-11018
ʂ	-11019
ʈ	-11020
ʋ	-11021
ʣ	-11022
ˊ	-11023
˥	-11024
˧	-11025
̩	-11026
̪	-11027
͘	-11028
ӄ	-11029
ӧ	-11030
ղ	-11031
ֳ	-11032
־	-11033
ׂ	-11034
ٽ	-11035
ۋ	-11036
ܝ	-11037
ܢ	-11038
ރ	-11039
ވ	-11040
ދ	-11041
ޖ	-11042
ަ	-11043
इ	-11044
ङ	-11045
।	-11046
ਕ	-11047
ਮ	-11048
ક	-11049
જ	-11050
ொ	-11051
ం	-11052
స	-11053
ె	-11054
ಬ	-11055
ೀ	-11056
ങ	-11057
ന	-11058
മ	-11059
ു	-11060
ජ	-11061
ී	-11062
ฌ	-11063
ฝ	-11064
ฺ	-11065
ກ	-11066
ງ	-11067
ທ	-11068
ປ	-11069
ມ	-11070
ັ	-11071
ເ	-11072
ໄ	-11073
ཏ	-11074
ཱ	-11075
ྐ	-11076
တ	-11077
့	-11078
ᄝ	-11079
ᅀ	-11080
ᅗ	-11081
ᅱ	-11082
ᆭ	-11083
መ	-11084
ረ	-11085
ሻ	-11086
ተ	-11087
ች	-11088
ና	-11089
አ	-11090
ክ	-11091
ድ	-11092
ግ	-11093
ᑐ	-11094
ប	-11095
ម	-11096
ḡ	-11097
ḳ	-11098
ḵ	-11099
ẹ	-11100
ợ	-11101
ỳ	-11102
ỹ	-11103
ἱ	-11104
ὀ	-11105
ῆ	-11106
₹	-11107
℗	-11108
ↀ	-11109
↗	-11110
⇢	-11111
∋	-11112
∏	-11113
⋆	-11114
⌀	-11115
⌋	-11116
☞	-11117
✳	-11118
❲	-11119
❳	-11120
ⴳ	-11121
ⵜ	-11122
〻	-11123
ㄇ	-11124
ㄧ	-11125
㝅	-11126
㠀	-11127
㶏	-11128
丰	-11129
为	-11130
丽	-11131
仚	-11132
们	-11133
佽	-11134
侚	-11135
俁	-11136
俏	-11137
傔	-11138
傖	-11139
僔	-11140
僴	-11141
儇	-11142
儛	-11143
儞	-11144
兴	-11145
冾	-11146
凾	-11147
剏	-11148
勷	-11149
卮	-11150
吁	-11151
员	-11152
呦	-11153
哂	-11154
唼	-11155
啟	-11156
喱	-11157
嗉	-11158
嗷	-11159
嘖	-11160
嘸	-11161
嚀	-11162
嚔	-11163
囘	-11164
囻	-11165
图	-11166
圄	-11167
圯	-11168
场	-11169
坫	-11170
垒	-11171
埇	-11172
塋	-11173
塬	-11174
墭	-11175
壞	-11176
妛	-11177
妠	-11178
娄	-11179
媵	-11180
嫋	-11181
嫘	-11182
嫥	-11183
嬈	-11184
嬙	-11185
孱	-11186
对	-11187
岭	-11188
崞	-11189
嵒	-11190
嵙	-11191
嶓	-11192
嶸	-11193
巎	-11194
幃	-11195
幞	-11196
廰	-11197
开	-11198
弽	-11199
忤	-11200
总	-11201
恟	-11202
惛	-11203
惤	-11204
慘	-11205
戢	-11206
戾	-11207
扭	-11208
拕	-11209
拖	-11210
挖	-11211
搆	-11212
摹	-11213
撑	-11214
撾	-11215
攔	-11216
攖	-11217
晓	-11218
暕	-11219
曚	-11220
朖	-11221
柀	-11222
栒	-11223
栱	-11224
桄	-11225
梀	-11226
梺	-11227
棫	-11228
棽	-11229
椓	-11230
榾	-11231
榿	-11232
槫	-11233
槭	-11234
樏	-11235
櫔	-11236
櫞	-11237
欞	-11238
欹	-11239
歛	-11240
殛	-11241
殽	-11242
氧	-11243
汭	-11244
泜	-11245
泫	-11246
泵	-11247
浠	-11248
涉	-11249
涑	-11250
润	-11251
淕	-11252
渊	-11253
湓	-11254
湔	-11255
溲	-11256
滨	-11257
漊	-11258
漒	-11259
潦	-11260
澥	-11261
濕	-11262
瀍	-11263
烜	-11264
熜	-11265
熺	-11266
燊	-11267
狖	-11268
猱	-11269
玆	-11270
珦	-11271
瑈	-11272
瑢	-11273
璁	-11274
瓱	-11275
瓲	-11276
甪	-11277
畭	-11278
畺	-11279
疒	-11280
瘁	-11281
瘣	-11282
瘦	-11283
皕	-11284
皞	-11285
皴	-11286
盍	-11287
睍	-11288
矠	-11289
磷	-11290
礄	-11291
秊	-11292
穠	-11293
窻	-11294
竓	-11295
竰	-11296
笳	-11297
筴	-11298
籘	-11299
綛	-11300
綧	-11301
緣	-11302
縈	-11303
縟	-11304
纖	-11305
纪	-11306
罧	-11307
职	-11308
胙	-11309
腧	-11310
腩	-11311
舮	-11312
艺	-11313
茆	-11314
荆	-11315
荔	-11316
荽	-11317
莖	-11318
莜	-11319
菀	-11320
菪	-11321
营	-11322
葮	-11323
葳	-11324
蒅	-11325
蔲	-11326
薐	-11327
薜	-11328
藕	-11329
蘑	-11330
虒	-11331
虖	-11332
蚋	-11333
蚰	-11334
蜱	-11335
蝱	-11336
袵	-11337
褙	-11338
襁	-11339
誴	-11340
諗	-11341
讌	-11342
谼	-11343
貺	-11344
賨	-11345
賰	-11346
跚	-11347
軆	-11348
輏	-11349
輾	-11350
轀	-11351
轝	-11352
辽	-11353
这	-11354
迚	-11355
逌	-11356
逕	-11357
逴	-11358
鄃	-11359
鄶	-11360
醮	-11361
釻	-11362
鉶	-11363
鉸	-11364
鋕	-11365
錏	-11366
錞	-11367
鍉	-11368
鍹	-11369
鑈	-11370
閙	-11371
閹	-11372
闋	-11373
闚	-11374
陁	-11375
隂	-11376
隄	-11377
靨	-11378
鞞	-11379
頲	-11380
领	-11381
飞	-11382
騅	-11383
鬃	-11384
鬐	-11385
鯷	-11386
鱟	-11387
鳫	-11388
鴃	-11389
鶆	-11390
鶍	-11391
鷁	-11392
鸇	-11393
麂	-11394
黁	-11395
鼒	-11396
건	-11397
균	-11398
근	-11399
귿	-11400
글	-11401
넉	-11402
담	-11403
떡	-11404
람	-11405
룡	-11406
르	-11407
많	-11408
망	-11409
메	-11410
변	-11411
빼	-11412
섬	-11413
쇠	-11414
습	-11415
앙	-11416
웅	-11417
읏	-11418
읒	-11419
읗	-11420
점	-11421
찬	-11422
참	-11423
쿠	-11424
페	-11425
함	-11426
혁	-11427
협	-11428
형	-11429
혼	-11430
활	-11431
￼	-11432
𐤁	-11433
𓂋	-11434
𠵇	-11435
𥥛	-11436
𩑛	-11437
𩹄	-11438
ĺ	-11439
ŕ	-11440
ǃ	-11441
ǟ	-11442
ǥ	-11443
ǵ	-11444
ǽ	-11445
ɷ	-11446
˕	-11447
˦	-11448
˨	-11449
̞	-11450
̰	-11451
җ	-11452
ҳ	-11453
ҷ	-11454
һ	-11455
ӣ	-11456
ӯ	-11457
ӷ	-11458
ը	-11459
խ	-11460
ֆ	-11461
װ	-11462
ײ	-11463
ڬ	-11464
ۈ	-11465
ܒ	-11466
ܲ	-11467
ओ	-11468
ॐ	-11469
আ	-11470
উ	-11471
ও	-11472
ঘ	-11473
ছ	-11474
ঞ	-11475
ো	-11476
ਗ	-11477
ਘ	-11478
ਦ	-11479
ਪ	-11480
ਵ	-11481
ਸ	-11482
ਹ	-11483
મ	-11484
ર	-11485
વ	-11486
అ	-11487
ణ	-11488
బ	-11489
శ	-11490
ూ	-11491
ಗ	-11492
ಟ	-11493
ಯ	-11494
ം	-11495
ക	-11496
ട	-11497
ത	-11498
ല	-11499
ള	-11500
ං	-11501
ප	-11502
ි	-11503
๋	-11504
ຂ	-11505
ດ	-11506
ບ	-11507
ສ	-11508
ອ	-11509
ິ	-11510
ູ	-11511
່	-11512
ཐ	-11513
ཙ	-11514
ཟ	-11515
ཤ	-11516
ཨ	-11517
ྟ	-11518
ྩ	-11519
ྭ	-11520
စ	-11521
ည	-11522
သ	-11523
ျ	-11524
ზ	-11525
კ	-11526
ყ	-11527
ჩ	-11528
წ	-11529
ᄈ	-11530
ᄬ	-11531
ᅪ	-11532
ᅫ	-11533
ᅰ	-11534
ᆰ	-11535
ᆲ	-11536
ላ	-11537
ሐ	-11538
ሳ	-11539
ኢ	-11540
ኩ	-11541
ይ	-11542
ዳ	-11543
ፈ	-11544
ᐦ	-11545
ᐧ	-11546
ᑭ	-11547
ទ	-11548
ន	-11549
េ	-11550
ḃ	-11551
ḋ	-11552
ḙ	-11553
ằ	-11554
ặ	-11555
ể	-11556
ỏ	-11557
ổ	-11558
ἑ	-11559
ἔ	-11560
ἕ	-11561
ὴ	-11562
ὺ	-11563
ῶ	-11564
‣	-11565
₩	-11566
⃝	-11567
↘	-11568
↵	-11569
∙	-11570
⌘	-11571
⏨	-11572
⏩	-11573
☮	-11574
✈	-11575
✩	-11576
⦿	-11577
ⴷ	-11578
ⵎ	-11579
ⵣ	-11580
⺭	-11581
〠	-11582
〲	-11583
ㄎ	-11584
ㄚ	-11585
ㇲ	-11586
㒶	-11587
㤄	-11588
㮈	-11589
㹨	-11590
䐗	-11591
䜌	-11592
䡄	-11593
䳒	-11594
䵋	-11595
丄	-11596
丝	-11597
两	-11598
乇	-11599
亿	-11600
仃	-11601
优	-11602
俉	-11603
倀	-11604
倞	-11605
倨	-11606
值	-11607
傒	-11608
冇	-11609
击	-11610
创	-11611
剎	-11612
劼	-11613
卌	-11614
单	-11615
县	-11616
呐	-11617
呸	-11618
呿	-11619
咯	-11620
唔	-11621
啀	-11622
啐	-11623
啦	-11624
喔	-11625
喟	-11626
喨	-11627
嗢	-11628
嗹	-11629
嘈	-11630
噉	-11631
噹	-11632
嚨	-11633
囑	-11634
囟	-11635
囹	-11636
圣	-11637
圷	-11638
堉	-11639
塏	-11640
塨	-11641
墀	-11642
壻	-11643
处	-11644
姟	-11645
媖	-11646
媱	-11647
孃	-11648
孥	-11649
孳	-11650
尙	-11651
尨	-11652
屐	-11653
屘	-11654
屭	-11655
岛	-11656
岦	-11657
崢	-11658
崿	-11659
嶄	-11660
嶗	-11661
庎	-11662
廁	-11663
弎	-11664
张	-11665
弸	-11666
徤	-11667
怏	-11668
怱	-11669
悅	-11670
愐	-11671
戉	-11672
扢	-11673
抦	-11674
拊	-11675
拽	-11676
挪	-11677
掎	-11678
搴	-11679
撝	-11680
撣	-11681
敳	-11682
旈	-11683
旣	-11684
晛	-11685
晪	-11686
暅	-11687
权	-11688
杈	-11689
桌	-11690
桥	-11691
桼	-11692
梍	-11693
棈	-11694
棵	-11695
椈	-11696
楉	-11697
楜	-11698
楩	-11699
榠	-11700
榣	-11701
榨	-11702
榪	-11703
樉	-11704
樝	-11705
樴	-11706
檝	-11707
檟	-11708
檠	-11709
氛	-11710
汉	-11711
汋	-11712
泱	-11713
浹	-11714
浼	-11715
淶	-11716
渢	-11717
溂	-11718
漻	-11719
潥	-11720
潺	-11721
澇	-11722
澔	-11723
濚	-11724
瀅	-11725
灵	-11726
烱	-11727
焊	-11728
焱	-11729
煠	-11730
燄	-11731
燙	-11732
燜	-11733
燹	-11734
爱	-11735
犲	-11736
狁	-11737
狨	-11738
狮	-11739
猇	-11740
猓	-11741
獒	-11742
玅	-11743
玵	-11744
琙	-11745
瑍	-11746
瑒	-11747
瓫	-11748
甅	-11749
甡	-11750
甾	-11751
畩	-11752
畲	-11753
疃	-11754
眛	-11755
睆	-11756
睴	-11757
砮	-11758
碱	-11759
磤	-11760
礿	-11761
秌	-11762
稅	-11763
稾	-11764
窨	-11765
窳	-11766
竴	-11767
竽	-11768
笂	-11769
简	-11770
篔	-11771
簃	-11772
簓	-11773
簣	-11774
籲	-11775
籵	-11776
粨	-11777
紉	-11778
紓	-11779
絋	-11780
絙	-11781
絜	-11782
絫	-11783
絺	-11784
綋	-11785
緌	-11786
縡	-11787
縶	-11788
纁	-11789
纔	-11790
红	-11791
约	-11792
纳	-11793
经	-11794
罍	-11795
罒	-11796
罗	-11797
羖	-11798
翥	-11799
耑	-11800
耷	-11801
膓	-11802
臊	-11803
臬	-11804
芰	-11805
苽	-11806
茭	-11807
荈	-11808
菼	-11809
萓	-11810
葊	-11811
蓖	-11812
蔻	-11813
蕖	-11814
蕡	-11815
蕣	-11816
薉	-11817
蘗	-11818
蘰	-11819
虾	-11820
蚉	-11821
蛰	-11822
蜇	-11823
蝨	-11824
蝹	-11825
蟎	-11826
蟖	-11827
衎	-11828
袗	-11829
袪	-11830
袾	-11831
褂	-11832
褲	-11833
襃	-11834
襅	-11835
襯	-11836
觱	-11837
詿	-11838
諲	-11839
謏	-11840
讜	-11841
论	-11842
豅	-11843
豔	-11844
貎	-11845
貲	-11846
资	-11847
趁	-11848
趕	-11849
踉	-11850
蹌	-11851
蹣	-11852
躄	-11853
躒	-11854
輶	-11855
连	-11856
迤	-11857
逶	-11858
遘	-11859
遴	-11860
遶	-11861
郜	-11862
鄗	-11863
鄹	-11864
鈹	-11865
鉆	-11866
銍	-11867
銨	-11868
銼	-11869
鋁	-11870
鋆	-11871
錧	-11872
錱	-11873
錵	-11874
鍪	-11875
鍰	-11876
鍱	-11877
鍳	-11878
鎂	-11879
鏧	-11880
鐲	-11881
鑅	-11882
铁	-11883
镇	-11884
閈	-11885
陕	-11886
陡	-11887
隝	-11888
隞	-11889
雱	-11890
霏	-11891
靇	-11892
靷	-11893
鞁	-11894
鞫	-11895
韛	-11896
頔	-11897
頞	-11898
顋	-11899
顙	-11900
风	-11901
飠	-11902
飥	-11903
餈	-11904
馹	-11905
駃	-11906
駉	-11907
駻	-11908
騮	-11909
驌	-11910
驫	-11911
髹	-11912
鬧	-11913
魞	-11914
魵	-11915
魷	-11916
鮅	-11917
鮠	-11918
鮴	-11919
鮺	-11920
鯈	-11921
鯪	-11922
鯲	-11923
鰔	-11924
鰛	-11925
鱅	-11926
鱛	-11927
鱵	-11928
鱷	-11929
鳲	-11930
鵾	-11931
鶡	-11932
鸊	-11933
鸑	-11934
鸝	-11935
鸡	-11936
麕	-11937
麞	-11938
黿	-11939
ꜜ	-11940
같	-11941
겨	-11942
견	-11943
곤	-11944
굻	-11945
극	-11946
깃	-11947
꼭	-11948
난	-11949
넓	-11950
넘	-11951
농	-11952
누	-11953
늘	-11954
덕	-11955
등	-11956
련	-11957
름	-11958
림	-11959
립	-11960
면	-11961
밀	-11962
밖	-11963
밭	-11964
빛	-11965
빵	-11966
뽕	-11967
샤	-11968
센	-11969
션	-11970
속	-11971
술	-11972
슈	-11973
실	-11974
십	-11975
악	-11976
않	-11977
업	-11978
없	-11979
었	-11980
엠	-11981
온	-11982
욕	-11983
율	-11984
입	-11985
쟁	-11986
찰	-11987
처	-11988
체	-11989
촌	-11990
추	-11991
침	-11992
케	-11993
탕	-11994
택	-11995
테	-11996
팔	-11997
퍼	-11998
표	-11999
필	-12000
향	-12001
허	-12002
험	-12003
𐤀	-12004
𐤌	-12005
𐳀	-12006
𠀑	-12007
𡈽	-12008
𢸍	-12009
𤘩	-12010
𧶛	-12011
K	-12012
ķ	-12013
ŵ	-12014
ƅ	-12015
ǖ	-12016
ǯ	-12017
ǹ	-12018
ǿ	-12019
ɓ	-12020
ɗ	-12021
ɜ	-12022
ʑ	-12023
ˁ	-12024
˩	-12025
̆	-12026
̚	-12027
ͱ	-12028
ϛ	-12029
ϡ	-12030
ѧ	-12031
ҁ	-12032
ҕ	-12033
ҙ	-12034
ҝ	-12035
ҟ	-12036
ҡ	-12037
ҥ	-12038
ҧ	-12039
ҩ	-12040
ҫ	-12041
ҭ	-12042
ҵ	-12043
ҹ	-12044
ҽ	-12045
ӂ	-12046
ӈ	-12047
ӌ	-12048
ӝ	-12049
ӟ	-12050
ӡ	-12051
ӥ	-12052
ӱ	-12053
ӵ	-12054
ծ	-12055
ձ	-12056
չ	-12057
ռ	-12058
؟	-12059
ً	-12060
ٌ	-12061
ٴ	-12062
ڀ	-12063
ڤ	-12064
ڵ	-12065
ې	-12066
ܓ	-12067
ܕ	-12068
ܚ	-12069
ܩ	-12070
ܬ	-12071
ܵ	-12072
ނ	-12073
ޝ	-12074
ު	-12075
ޯ	-12076
औ	-12077
ळ	-12078
१	-12079
ই	-12080
ঠ	-12081
ড	-12082
থ	-12083
ৃ	-12084
ৎ	-12085
ਆ	-12086
ਜ	-12087
ਟ	-12088
ਡ	-12089
ਬ	-12090
ੁ	-12091
ੇ	-12092
੍	-12093
અ	-12094
ઞ	-12095
ડ	-12096
ણ	-12097
ન	-12098
ષ	-12099
ର	-12100
ା	-12101
இ	-12102
உ	-12103
ஸ	-12104
ఖ	-12105
జ	-12106
ట	-12107
హ	-12108
ే	-12109
ో	-12110
ಂ	-12111
ಳ	-12112
ಸ	-12113
ೆ	-12114
ೇ	-12115
ഗ	-12116
ച	-12117
ധ	-12118
റ	-12119
ശ	-12120
സ	-12121
ൂ	-12122
ත	-12123
න	-12124
ල	-12125
ශ	-12126
ස	-12127
ฏ	-12128
ฯ	-12129
ຄ	-12130
ພ	-12131
ຫ	-12132
ີ	-12133
ື	-12134
ົ	-12135
ແ	-12136
ໍ	-12137
ཅ	-12138
ཛ	-12139
ཝ	-12140
ཧ	-12141
ྗ	-12142
ྣ	-12143
ྦ	-12144
ྫ	-12145
ထ	-12146
န	-12147
ဖ	-12148
ဗ	-12149
ူ	-12150
ွ	-12151
ှ	-12152
ღ	-12153
ჯ	-12154
ᄄ	-12155
ᅯ	-12156
ᅴ	-12157
ᆱ	-12158
ᆴ	-12159
ᆵ	-12160
ሞ	-12161
ሪ	-12162
ሮ	-12163
ቦ	-12164
ቶ	-12165
ኑ	-12166
ኖ	-12167
ዊ	-12168
ዮ	-12169
ደ	-12170
ጵ	-12171
ፀ	-12172
ፍ	-12173
ᏹ	-12174
ᐊ	-12175
ᐯ	-12176
ᑎ	-12177
ᒥ	-12178
ᒧ	-12179
ᓄ	-12180
ᓐ	-12181
ង	-12182
ព	-12183
ុ	-12184
ៀ	-12185
់	-12186
ᠡ	-12187
ᠯ	-12188
ᡥ	-12189
ḹ	-12190
ḿ	-12191
ṁ	-12192
ṓ	-12193
ṕ	-12194
ṝ	-12195
ẖ	-12196
ẩ	-12197
ẽ	-12198
ἁ	-12199
ἂ	-12200
ἡ	-12201
ἤ	-12202
ἴ	-12203
ὁ	-12204
ὅ	-12205
ῷ	-12206
‵	-12207
⁓	-12208
⁠	-12209
ↁ	-12210
ↂ	-12211
ↇ	-12212
ↈ	-12213
⇌	-12214
⇐	-12215
⇩	-12216
∕	-12217
≌	-12218
≢	-12219
⊇	-12220
⊊	-12221
⊔	-12222
⏋	-12223
⏎	-12224
┏	-12225
┘	-12226
◊	-12227
☊	-12228
⚊	-12229
⚋	-12230
✓	-12231
✖	-12232
✚	-12233
✨	-12234
✶	-12235
➝	-12236
⟨	-12237
⟩	-12238
⦅	-12239
⦆	-12240
ⴱ	-12241
ⴻ	-12242
ⵔ	-12243
ⵕ	-12244
ⵖ	-12245
ⵙ	-12246
⻌	-12247
ヷ	-12248
ㄏ	-12249
ㄑ	-12250
ㄒ	-12251
ㄢ	-12252
ㄣ	-12253
ㄥ	-12254
ㇳ	-12255
㔟	-12256
㙔	-12257
㟢	-12258
㦮	-12259
㫤	-12260
㬢	-12261
㶚	-12262
㶱	-12263
㷩	-12264
㹻	-12265
䉼	-12266
䚟	-12267
䡎	-12268
䰗	-12269
丨	-12270
乄	-12271
乔	-12272
乚	-12273
习	-12274
乣	-12275
乽	-12276
产	-12277
亻	-12278
众	-12279
传	-12280
侒	-12281
俍	-12282
偀	-12283
偓	-12284
偰	-12285
偷	-12286
傌	-12287
傚	-12288
傜	-12289
僞	-12290
僩	-12291
僲	-12292
儵	-12293
儻	-12294
冝	-12295
冯	-12296
减	-12297
凤	-12298
刂	-12299
刘	-12300
刚	-12301
刵	-12302
剧	-12303
剮	-12304
剼	-12305
劄	-12306
劌	-12307
办	-12308
劳	-12309
勍	-12310
匊	-12311
匤	-12312
卄	-12313
叻	-12314
呍	-12315
呫	-12316
咕	-12317
咦	-12318
咪	-12319
哔	-12320
哿	-12321
唭	-12322
啉	-12323
啊	-12324
喈	-12325
喞	-12326
嘓	-12327
噐	-12328
嚩	-12329
圆	-12330
坛	-12331
坨	-12332
坭	-12333
坳	-12334
坼	-12335
垍	-12336
垞	-12337
垬	-12338
垭	-12339
垱	-12340
埖	-12341
埦	-12342
埭	-12343
埿	-12344
堞	-12345
墹	-12346
壔	-12347
壼	-12348
够	-12349
姁	-12350
姸	-12351
娉	-12352
娓	-12353
娚	-12354
娰	-12355
嫵	-12356
嬥	-12357
孴	-12358
寃	-12359
尕	-12360
屚	-12361
屨	-12362
岢	-12363
岼	-12364
峍	-12365
峐	-12366
崒	-12367
崮	-12368
嵇	-12369
嵕	-12370
嵫	-12371
嵭	-12372
嶙	-12373
嶰	-12374
嶴	-12375
巔	-12376
巢	-12377
巩	-12378
帋	-12379
帒	-12380
带	-12381
幘	-12382
幵	-12383
庤	-12384
廡	-12385
廧	-12386
弃	-12387
弹	-12388
彍	-12389
忬	-12390
怫	-12391
悊	-12392
惓	-12393
慵	-12394
懾	-12395
戇	-12396
戝	-12397
扃	-12398
扑	-12399
抳	-12400
拄	-12401
拑	-12402
捒	-12403
捞	-12404
掀	-12405
掇	-12406
掐	-12407
掽	-12408
搞	-12409
搠	-12410
搢	-12411
摽	-12412
撩	-12413
撳	-12414
擐	-12415
攩	-12416
敘	-12417
斅	-12418
斈	-12419
斿	-12420
旆	-12421
旵	-12422
旿	-12423
昖	-12424
昳	-12425
晊	-12426
暆	-12427
暶	-12428
暸	-12429
曬	-12430
曱	-12431
朅	-12432
朳	-12433
杂	-12434
杋	-12435
杕	-12436
杨	-12437
构	-12438
枥	-12439
枰	-12440
枵	-12441
柟	-12442
柷	-12443
柹	-12444
栍	-12445
桕	-12446
桫	-12447
桵	-12448
梂	-12449
梆	-12450
梐	-12451
梜	-12452
棰	-12453
椣	-12454
楂	-12455
榀	-12456
榖	-12457
槝	-12458
槮	-12459
槹	-12460
樶	-12461
樻	-12462
橢	-12463
橪	-12464
檞	-12465
櫁	-12466
欵	-12467
歉	-12468
歔	-12469
歬	-12470
歺	-12471
殪	-12472
殫	-12473
殮	-12474
殱	-12475
汔	-12476
汹	-12477
沇	-12478
沚	-12479
泅	-12480
泐	-12481
泖	-12482
泟	-12483
洫	-12484
洭	-12485
浖	-12486
涮	-12487
淛	-12488
淼	-12489
渴	-12490
湝	-12491
湨	-12492
湶	-12493
滆	-12494
滈	-12495
滘	-12496
满	-12497
漈	-12498
澀	-12499
澐	-12500
澣	-12501
濇	-12502
瀁	-12503
灢	-12504
炗	-12505
烔	-12506
焞	-12507
煢	-12508
燋	-12509
燬	-12510
燸	-12511
牋	-12512
牾	-12513
犎	-12514
犖	-12515
猎	-12516
猳	-12517
猽	-12518
獢	-12519
獫	-12520
獷	-12521
玀	-12522
现	-12523
珌	-12524
珒	-12525
琯	-12526
琼	-12527
瑧	-12528
璡	-12529
璪	-12530
璯	-12531
璲	-12532
瓉	-12533
瓧	-12534
瓰	-12535
瓸	-12536
瓿	-12537
甁	-12538
甗	-12539
甩	-12540
甴	-12541
畄	-12542
畎	-12543
畓	-12544
畱	-12545
疚	-12546
痃	-12547
痎	-12548
痹	-12549
癯	-12550
皂	-12551
皸	-12552
皹	-12553
监	-12554
盘	-12555
眘	-12556
眯	-12557
睒	-12558
睞	-12559
睽	-12560
瞯	-12561
瞶	-12562
矦	-12563
砉	-12564
砍	-12565
砡	-12566
硈	-12567
硨	-12568
碉	-12569
碞	-12570
碻	-12571
碽	-12572
磌	-12573
磝	-12574
磲	-12575
礇	-12576
祘	-12577
祤	-12578
禡	-12579
禳	-12580
禸	-12581
离	-12582
秕	-12583
秢	-12584
秽	-12585
穈	-12586
穡	-12587
穧	-12588
穩	-12589
穵	-12590
窕	-12591
窫	-12592
竍	-12593
竏	-12594
竕	-12595
竞	-12596
竡	-12597
竩	-12598
筦	-12599
筯	-12600
筷	-12601
筹	-12602
箐	-12603
篚	-12604
篾	-12605
簦	-12606
簱	-12607
簷	-12608
簺	-12609
籁	-12610
籥	-12611
粄	-12612
粑	-12613
糍	-12614
糗	-12615
糵	-12616
紜	-12617
紝	-12618
絚	-12619
絿	-12620
綮	-12621
緤	-12622
緲	-12623
縕	-12624
縳	-12625
纆	-12626
练	-12627
绝	-12628
统	-12629
缸	-12630
羑	-12631
翛	-12632
翬	-12633
耇	-12634
耍	-12635
耦	-12636
聂	-12637
聢	-12638
聦	-12639
聸	-12640
肃	-12641
肫	-12642
胅	-12643
胯	-12644
脣	-12645
脫	-12646
脰	-12647
腭	-12648
膛	-12649
臟	-12650
舃	-12651
艜	-12652
艟	-12653
艷	-12654
芇	-12655
芊	-12656
芪	-12657
芫	-12658
苆	-12659
苒	-12660
苩	-12661
茀	-12662
茈	-12663
茖	-12664
茝	-12665
荄	-12666
药	-12667
荵	-12668
荸	-12669
莂	-12670
莃	-12671
菎	-12672
菹	-12673
萑	-12674
萨	-12675
葈	-12676
葘	-12677
蒓	-12678
蒭	-12679
蕕	-12680
蕢	-12681
蕫	-12682
薲	-12683
藂	-12684
藦	-12685
藿	-12686
蘘	-12687
蘸	-12688
虩	-12689
蚜	-12690
蛔	-12691
蛩	-12692
蛬	-12693
蜼	-12694
蝍	-12695
螃	-12696
螄	-12697
螈	-12698
螉	-12699
螠	-12700
螮	-12701
蠇	-12702
蠓	-12703
蠮	-12704
蠲	-12705
衄	-12706
衕	-12707
衚	-12708
襀	-12709
襌	-12710
襍	-12711
覉	-12712
观	-12713
览	-12714
觕	-12715
觭	-12716
觽	-12717
詀	-12718
詃	-12719
諕	-12720
諢	-12721
謜	-12722
謩	-12723
譁	-12724
譆	-12725
譌	-12726
譩	-12727
譮	-12728
讞	-12729
许	-12730
诉	-12731
豻	-12732
貜	-12733
賸	-12734
贐	-12735
责	-12736
货	-12737
贵	-12738
贸	-12739
贼	-12740
赵	-12741
跼	-12742
踆	-12743
踟	-12744
蹐	-12745
蹛	-12746
蹦	-12747
軈	-12748
軑	-12749
軔	-12750
輇	-12751
輙	-12752
輨	-12753
达	-12754
迁	-12755
迨	-12756
迵	-12757
选	-12758
逧	-12759
逷	-12760
邗	-12761
邘	-12762
郑	-12763
郪	-12764
鄅	-12765
鄡	-12766
鄩	-12767
鄳	-12768
鄺	-12769
鄽	-12770
酡	-12771
酿	-12772
醞	-12773
鈁	-12774
鈆	-12775
鈦	-12776
鈰	-12777
鋃	-12778
鋗	-12779
鋮	-12780
鋿	-12781
錩	-12782
鏊	-12783
鏌	-12784
鏜	-12785
鏟	-12786
鏵	-12787
鐄	-12788
鐧	-12789
鑃	-12790
鑌	-12791
鑕	-12792
镸	-12793
閆	-12794
閽	-12795
问	-12796
间	-12797
阴	-12798
阼	-12799
陦	-12800
陲	-12801
隺	-12802
霅	-12803
霬	-12804
靆	-12805
靗	-12806
靬	-12807
鞀	-12808
鞱	-12809
韈	-12810
韍	-12811
韞	-12812
頖	-12813
顺	-12814
颷	-12815
颸	-12816
飆	-12817
餑	-12818
餺	-12819
餻	-12820
餽	-12821
駔	-12822
駘	-12823
驰	-12824
骎	-12825
髫	-12826
鬴	-12827
鬹	-12828
魲	-12829
魳	-12830
鮁	-12831
鮋	-12832
鮖	-12833
鮗	-12834
鮙	-12835
鮚	-12836
鮞	-12837
鮱	-12838
鮲	-12839
鮸	-12840
鯆	-12841
鯽	-12842
鰥	-12843
鰧	-12844
鰩	-12845
鱆	-12846
鱊	-12847
鱩	-12848
鱪	-12849
鱰	-12850
鲍	-12851
鲑	-12852
鳞	-12853
鴗	-12854
鴾	-12855
鵂	-12856
鵥	-12857
鷚	-12858
鷴	-12859
鸭	-12860
鸿	-12861
鹅	-12862
鹻	-12863
麇	-12864
麽	-12865
黓	-12866
齏	-12867
齦	-12868
龖	-12869
ꙗ	-12870
ꭰ	-12871
ꭱ	-12872
ꭲ	-12873
ꭳ	-12874
ꭴ	-12875
ꭵ	-12876
ꮤ	-12877
ꮧ	-12878
값	-12879
검	-12880
격	-12881
결	-12882
겹	-12883
골	-12884
곽	-12885
괴	-12886
궁	-12887
깍	-12888
깨	-12889
께	-12890
꾸	-12891
끝	-12892
낙	-12893
낫	-12894
너	-12895
넋	-12896
널	-12897
녕	-12898
뉴	-12899
능	-12900
닭	-12901
답	-12902
덧	-12903
돈	-12904
따	-12905
랜	-12906
량	-12907
렌	-12908
롱	-12909
륙	-12910
릉	-12911
린	-12912
매	-12913
맹	-12914
몽	-12915
밍	-12916
받	-12917
밸	-12918
번	-12919
벼	-12920
분	-12921
불	-12922
붓	-12923
빱	-12924
삶	-12925
샘	-12926
섭	-12927
숙	-12928
알	-12929
았	-12930
애	-12931
앵	-12932
약	-12933
언	-12934
엄	-12935
엽	-12936
옛	-12937
완	-12938
왜	-12939
욱	-12940
읕	-12941
읖	-12942
익	-12943
있	-12944
절	-12945
족	-12946
좌	-12947
죽	-12948
채	-12949
챠	-12950
첫	-12951
촨	-12952
출	-12953
츠	-12954
칠	-12955
쾌	-12956
킥	-12957
털	-12958
텍	-12959
틀	-12960
틴	-12961
패	-12962
편	-12963
품	-12964
풍	-12965
할	-12966
핻	-12967
햏	-12968
휘	-12969
힐	-12970
	-12971
	-12972
﨔	-12973
𐌹	-12974
𐎢	-12975
𐤃	-12976
𐤉	-12977
𐤍	-12978
𐤏	-12979
𐳢	-12980
𒀭	-12981
𓀀	-12982
𓁐	-12983
𓄿	-12984
𓊃	-12985
𓌙	-12986
𓏥	-12987
𛁈	-12988
🅰	-12989
🜂	-12990
𠮟	-12991
𢶷	-12992
𢷋	-12993
𤏐	-12994
𤳆	-12995
𦻙	-12996
𨂊	-12997
𨲢	-12998
𨻻	-12999
𩳁	-13000
𩸽	-13001
𩿡	-13002
𫞬	-13003
𫟉	-13004
E	-13005
L	-13006
O	-13007
	-13008
ĸ	-13009
Ɛ	-13010
ǀ	-13011
ǂ	-13012
ǝ	-13013
ȩ	-13014
ȳ	-13015
ɇ	-13016
ɞ	-13017
ɧ	-13018
ɳ	-13019
ɵ	-13020
ɻ	-13021
ʉ	-13022
ʙ	-13023
ʨ	-13024
ˀ	-13025
˅	-13026
ˉ	-13027
ˮ	-13028
̋	-13029
̐	-13030
̓	-13031
̔	-13032
̜	-13033
̟	-13034
̠	-13035
̤	-13036
̨	-13037
̱	-13038
̸	-13039
̹	-13040
̺	-13041
ΐ	-13042
Υ	-13043
ϻ	-13044
ѐ	-13045
ђ	-13046
њ	-13047
ќ	-13048
џ	-13049
ѣ	-13050
ѫ	-13051
ѱ	-13052
ѵ	-13053
ҍ	-13054
ґ	-13055
ӆ	-13056
ӓ	-13057
ӕ	-13058
ӗ	-13059
ӳ	-13060
ԥ	-13061
՞	-13062
֣	-13063
ֻ	-13064
״	-13065
ٔ	-13066
٫	-13067
ٰ	-13068
ٹ	-13069
ٺ	-13070
ڑ	-13071
ژ	-13072
ڨ	-13073
ڪ	-13074
ۆ	-13075
ۍ	-13076
ێ	-13077
۲	-13078
ܙ	-13079
ܥ	-13080
ކ	-13081
މ	-13082
ލ	-13083
ޑ	-13084
ޓ	-13085
ޔ	-13086
ޫ	-13087
޿	-13088
ऋ	-13089
ऌ	-13090
ऐ	-13091
झ	-13092
ॉ	-13093
ॊ	-13094
ॠ	-13095
ॡ	-13096
॥	-13097
०	-13098
२	-13099
४	-13100
খ	-13101
ৰ	-13102
ਂ	-13103
ਖ	-13104
ਚ	-13105
ਣ	-13106
ਧ	-13107
ਭ	-13108
਼	-13109
ੂ	-13110
ੈ	-13111
ੋ	-13112
ੌ	-13113
ੜ	-13114
੦	-13115
੬	-13116
੯	-13117
ੴ	-13118
ં	-13119
ગ	-13120
ટ	-13121
ઠ	-13122
ય	-13123
ુ	-13124
ે	-13125
ો	-13126
ଓ	-13127
ଡ	-13128
ତ	-13129
ଥ	-13130
ଯ	-13131
ଶ	-13132
଼	-13133
ି	-13134
ୀ	-13135
୍	-13136
ஈ	-13137
ஊ	-13138
எ	-13139
ஏ	-13140
ஒ	-13141
ஹ	-13142
ఉ	-13143
చ	-13144
య	-13145
ష	-13146
ృ	-13147
ొ	-13148
౦	-13149
ಜ	-13150
ಠ	-13151
ಣ	-13152
ತ	-13153
ನ	-13154
ಮ	-13155
ಶ	-13156
ಷ	-13157
ಹ	-13158
ೂ	-13159
ೃ	-13160
അ	-13161
ആ	-13162
ജ	-13163
ദ	-13164
വ	-13165
ഹ	-13166
ൈ	-13167
ൊ	-13168
ോ	-13169
ൻ	-13170
ർ	-13171
ൽ	-13172
ൾ	-13173
ච	-13174
ද	-13175
ම	-13176
ය	-13177
ව	-13178
ෆ	-13179
ැ	-13180
ෑ	-13181
ු	-13182
ූ	-13183
ෙ	-13184
ේ	-13185
ො	-13186
ෝ	-13187
๒	-13188
ຍ	-13189
ຕ	-13190
ຽ	-13191
້	-13192
໊	-13193
໋	-13194
ཇ	-13195
ཉ	-13196
ཎ	-13197
ྔ	-13198
ྕ	-13199
ྜ	-13200
ྤ	-13201
ྰ	-13202
က	-13203
ခ	-13204
ဉ	-13205
ဝ	-13206
ဟ	-13207
အ	-13208
၄	-13209
၈	-13210
პ	-13211
ჰ	-13212
ᄍ	-13213
ᄛ	-13214
ᅇ	-13215
ᆡ	-13216
ᆬ	-13217
ᆳ	-13218
ᇙ	-13219
ሀ	-13220
ሁ	-13221
ሂ	-13222
ሄ	-13223
ሊ	-13224
ሕ	-13225
ሥ	-13226
ሩ	-13227
ሾ	-13228
ቆ	-13229
ቡ	-13230
ቢ	-13231
ቤ	-13232
ቲ	-13233
ታ	-13234
ቺ	-13235
ኒ	-13236
ኛ	-13237
ኝ	-13238
ኣ	-13239
ኦ	-13240
ከ	-13241
ወ	-13242
ዓ	-13243
ዕ	-13244
ዜ	-13245
ዴ	-13246
ጀ	-13247
ጅ	-13248
ጊ	-13249
ጋ	-13250
ጎ	-13251
ጠ	-13252
ጥ	-13253
ጽ	-13254
ፃ	-13255
ፅ	-13256
።	-13257
ᏸ	-13258
ᐅ	-13259
ᐏ	-13260
ᐠ	-13261
ᐢ	-13262
ᐤ	-13263
ᐱ	-13264
ᐳ	-13265
ᐸ	-13266
ᑕ	-13267
ᑦ	-13268
ᑲ	-13269
ᒃ	-13270
ᒋ	-13271
ᒫ	-13272
ᓂ	-13273
ᓃ	-13274
ᓇ	-13275
ᓈ	-13276
ᓯ	-13277
ᔑ	-13278
᙭	-13279
᚛	-13280
᚜	-13281
ᚦ	-13282
᛭	-13283
ខ	-13284
គ	-13285
ច	-13286
ត	-13287
ភ	-13288
យ	-13289
ល	-13290
វ	-13291
ហ	-13292
ិ	-13293
ែ	-13294
ៃ	-13295
ោ	-13296
ំ	-13297
ះ	-13298
៉	-13299
ᠨ	-13300
ᠩ	-13301
ᠭ	-13302
ᠰ	-13303
ᠴ	-13304
ᠶ	-13305
ᡠ	-13306
ᡤ	-13307
ᡩ	-13308
ᡳ	-13309
ḓ	-13310
ḝ	-13311
ḱ	-13312
ṉ	-13313
ṳ	-13314
ẫ	-13315
ẳ	-13316
ẻ	-13317
ỗ	-13318
ụ	-13319
ừ	-13320
ὄ	-13321
ὕ	-13322
ὤ	-13323
ᾱ	-13324
ᾶ	-13325
ῑ	-13326
ῤ	-13327
ῴ	-13328
‽	-13329
‿	-13330
⁂	-13331
⁎	-13332
⁑	-13333
⁒	-13334
⁣	-13335
₡	-13336
₣	-13337
₪	-13338
₫	-13339
₼	-13340
℥	-13341
ↅ	-13342
ↆ	-13343
↖	-13344
↠	-13345
↦	-13346
↽	-13347
⇀	-13348
⇄	-13349
⇆	-13350
⇈	-13351
⇛	-13352
∎	-13353
∸	-13354
≇	-13355
≔	-13356
≜	-13357
≝	-13358
⊙	-13359
⊣	-13360
⊤	-13361
⊧	-13362
⊻	-13363
⌈	-13364
⌥	-13365
␛	-13366
⓵	-13367
┤	-13368
┨	-13369
╱	-13370
◀	-13371
◁	-13372
◻	-13373
☀	-13374
☂	-13375
☉	-13376
☋	-13377
☌	-13378
☍	-13379
☎	-13380
☏	-13381
☪	-13382
☭	-13383
☯	-13384
☺	-13385
☽	-13386
♉	-13387
♒	-13388
♤	-13389
♧	-13390
♰	-13391
♾	-13392
⚹	-13393
⚾	-13394
✆	-13395
✌	-13396
✡	-13397
✱	-13398
✴	-13399
❀	-13400
❇	-13401
❗	-13402
❬	-13403
❭	-13404
➂	-13405
➖	-13406
➞	-13407
➧	-13408
➰	-13409
➽	-13410
⟺	-13411
⠀	-13412
⠠	-13413
⣿	-13414
⤴	-13415
⤵	-13416
⧜	-13417
⧝	-13418
⧞	-13419
⬛	-13420
⭐	-13421
ⰰ	-13422
ⰶ	-13423
ⰷ	-13424
ⰸ	-13425
ⵒ	-13426
ⵟ	-13427
ⵢ	-13428
⺌	-13429
⺕	-13430
⺬	-13431
⻄	-13432
⻆	-13433
⻍	-13434
〖	-13435
〗	-13436
〚	-13437
〛	-13438
〞	-13439
〷	-13440
ゖ	-13441
ㄆ	-13442
ㄈ	-13443
ㄌ	-13444
ㄍ	-13445
ㄐ	-13446
ㄓ	-13447
ㄘ	-13448
ㄛ	-13449
ㄜ	-13450
ㄝ	-13451
ㄞ	-13452
ㇴ	-13453
㉿	-13454
㐅	-13455
㐮	-13456
㒷	-13457
㓗	-13458
㓼	-13459
㕑	-13460
㗝	-13461
㝢	-13462
㟴	-13463
㡿	-13464
㣺	-13465
㫝	-13466
㫟	-13467
㬅	-13468
㬏	-13469
㮛	-13470
㮶	-13471
㱈	-13472
㴭	-13473
㴶	-13474
㴸	-13475
㶟	-13476
㻋	-13477
㻱	-13478
㼁	-13479
㼅	-13480
䀹	-13481
䂖	-13482
䂮	-13483
䄄	-13484
䌂	-13485
䏁	-13486
䏽	-13487
䑞	-13488
䓲	-13489
䕃	-13490
䗪	-13491
䚡	-13492
䝤	-13493
䣷	-13494
䦰	-13495
䨺	-13496
䪥	-13497
䰢	-13498
䰼	-13499
䱱	-13500
䳇	-13501
䴇	-13502
䴥	-13503
䵍	-13504
丂	-13505
丅	-13506
丏	-13507
专	-13508
丛	-13509
丟	-13510
严	-13511
丮	-13512
丯	-13513
丱	-13514
丳	-13515
临	-13516
举	-13517
乀	-13518
乁	-13519
乛	-13520
书	-13521
乩	-13522
乫	-13523
乹	-13524
亍	-13525
仠	-13526
仪	-13527
伕	-13528
伙	-13529
伤	-13530
伦	-13531
伾	-13532
佁	-13533
佖	-13534
侄	-13535
侦	-13536
侨	-13537
侲	-13538
侾	-13539
俌	-13540
俓	-13541
倎	-13542
倕	-13543
倥	-13544
倮	-13545
偆	-13546
偍	-13547
偣	-13548
偦	-13549
傈	-13550
傯	-13551
僎	-13552
僐	-13553
僬	-13554
僳	-13555
儈	-13556
儐	-13557
儗	-13558
兊	-13559
兛	-13560
兞	-13561
兟	-13562
兤	-13563
养	-13564
冈	-13565
冐	-13566
凢	-13567
凬	-13568
刔	-13569
刧	-13570
刨	-13571
剂	-13572
剐	-13573
剑	-13574
剺	-13575
劊	-13576
劬	-13577
勀	-13578
勖	-13579
勦	-13580
匆	-13581
匳	-13582
匾	-13583
协	-13584
卐	-13585
卖	-13586
卢	-13587
卣	-13588
卤	-13589
厷	-13590
叄	-13591
叕	-13592
叠	-13593
另	-13594
叵	-13595
吕	-13596
吗	-13597
听	-13598
吮	-13599
启	-13600
吿	-13601
呃	-13602
呤	-13603
呬	-13604
呴	-13605
咊	-13606
咷	-13607
咾	-13608
哎	-13609
哖	-13610
哢	-13611
哶	-13612
唏	-13613
唢	-13614
啁	-13615
啥	-13616
喂	-13617
喎	-13618
喵	-13619
喿	-13620
嗛	-13621
嗝	-13622
嗦	-13623
嗨	-13624
嘨	-13625
嘹	-13626
嘻	-13627
噁	-13628
噍	-13629
噦	-13630
噩	-13631
嚕	-13632
嚟	-13633
嚬	-13634
囈	-13635
囍	-13636
囏	-13637
囡	-13638
圂	-13639
圌	-13640
圑	-13641
圬	-13642
坒	-13643
块	-13644
坿	-13645
垃	-13646
垔	-13647
垖	-13648
垚	-13649
垨	-13650
埆	-13651
埏	-13652
埙	-13653
埡	-13654
埶	-13655
堇	-13656
堠	-13657
堧	-13658
堹	-13659
堿	-13660
塅	-13661
塉	-13662
塍	-13663
塐	-13664
塭	-13665
墎	-13666
墬	-13667
墲	-13668
壋	-13669
壎	-13670
壖	-13671
壚	-13672
壡	-13673
夯	-13674
头	-13675
奋	-13676
奛	-13677
奲	-13678
她	-13679
妁	-13680
妒	-13681
妭	-13682
妳	-13683
姗	-13684
姧	-13685
姰	-13686
娇	-13687
娎	-13688
娙	-13689
娬	-13690
媟	-13691
媤	-13692
媿	-13693
嫈	-13694
嫚	-13695
嬅	-13696
嬖	-13697
嬗	-13698
孌	-13699
孙	-13700
实	-13701
宪	-13702
宾	-13703
寋	-13704
寍	-13705
寎	-13706
寕	-13707
寜	-13708
层	-13709
屮	-13710
屰	-13711
屶	-13712
岁	-13713
岉	-13714
岍	-13715
岙	-13716
岠	-13717
岯	-13718
岺	-13719
岾	-13720
峕	-13721
崐	-13722
崘	-13723
崟	-13724
崦	-13725
崱	-13726
崳	-13727
崶	-13728
嵂	-13729
嵠	-13730
嶃	-13731
嶇	-13732
嶐	-13733
嶕	-13734
嶦	-13735
嶭	-13736
巀	-13737
巤	-13738
帠	-13739
幗	-13740
应	-13741
庙	-13742
庪	-13743
庬	-13744
庱	-13745
庿	-13746
廍	-13747
廎	-13748
廏	-13749
廮	-13750
弒	-13751
弙	-13752
弰	-13753
强	-13754
彀	-13755
彔	-13756
彛	-13757
徬	-13758
忡	-13759
忢	-13760
忰	-13761
怗	-13762
怚	-13763
怤	-13764
怳	-13765
怵	-13766
恖	-13767
恶	-13768
恺	-13769
悃	-13770
悒	-13771
悚	-13772
悤	-13773
悫	-13774
悱	-13775
悵	-13776
悺	-13777
惃	-13778
惊	-13779
惋	-13780
惎	-13781
惘	-13782
惢	-13783
惷	-13784
愙	-13785
慍	-13786
慝	-13787
慬	-13788
憕	-13789
憖	-13790
憘	-13791
戋	-13792
戧	-13793
扒	-13794
扜	-13795
扞	-13796
扵	-13797
抃	-13798
拋	-13799
拎	-13800
拚	-13801
拦	-13802
拪	-13803
挈	-13804
挎	-13805
挐	-13806
挥	-13807
捂	-13808
捼	-13809
捽	-13810
掞	-13811
掵	-13812
插	-13813
揟	-13814
揫	-13815
揲	-13816
摐	-13817
摟	-13818
撇	-13819
撐	-13820
擼	-13821
攏	-13822
攜	-13823
攞	-13824
敔	-13825
斄	-13826
旙	-13827
旲	-13828
昑	-13829
昛	-13830
昢	-13831
昩	-13832
晅	-13833
晜	-13834
晡	-13835
晥	-13836
晸	-13837
晻	-13838
晾	-13839
暍	-13840
暒	-13841
暝	-13842
曣	-13843
曧	-13844
朞	-13845
朿	-13846
杇	-13847
枅	-13848
枖	-13849
枫	-13850
枮	-13851
枲	-13852
枴	-13853
枼	-13854
柂	-13855
柃	-13856
柗	-13857
柧	-13858
柰	-13859
柸	-13860
栀	-13861
栈	-13862
树	-13863
栝	-13864
栟	-13865
桉	-13866
桯	-13867
桲	-13868
桷	-13869
桹	-13870
梄	-13871
梈	-13872
梉	-13873
梘	-13874
梣	-13875
梮	-13876
梴	-13877
梹	-13878
检	-13879
棓	-13880
棔	-13881
棙	-13882
棨	-13883
椡	-13884
椦	-13885
椧	-13886
椵	-13887
椶	-13888
楖	-13889
榄	-13890
榼	-13891
槀	-13892
槗	-13893
槤	-13894
槧	-13895
槩	-13896
槱	-13897
槺	-13898
樃	-13899
樍	-13900
樕	-13901
樨	-13902
樷	-13903
樿	-13904
橆	-13905
橉	-13906
橞	-13907
檆	-13908
檋	-13909
檛	-13910
檥	-13911
檨	-13912
檪	-13913
檯	-13914
櫆	-13915
櫝	-13916
櫧	-13917
欟	-13918
欷	-13919
欸	-13920
欻	-13921
歃	-13922
歍	-13923
歖	-13924
毁	-13925
毇	-13926
毣	-13927
毹	-13928
毼	-13929
毽	-13930
氅	-13931
氊	-13932
氍	-13933
氎	-13934
氫	-13935
汇	-13936
污	-13937
汩	-13938
沜	-13939
沟	-13940
洑	-13941
洚	-13942
洨	-13943
济	-13944
浔	-13945
浘	-13946
浯	-13947
浰	-13948
涔	-13949
涖	-13950
涩	-13951
淍	-13952
淏	-13953
淠	-13954
渔	-13955
湗	-13956
湲	-13957
溍	-13958
溮	-13959
滊	-13960
滍	-13961
滦	-13962
滻	-13963
漅	-13964
漋	-13965
漦	-13966
潇	-13967
潏	-13968
潗	-13969
澉	-13970
澜	-13971
濔	-13972
濳	-13973
濺	-13974
瀀	-13975
瀇	-13976
瀦	-13977
瀷	-13978
瀹	-13979
灠	-13980
炁	-13981
炕	-13982
炜	-13983
烉	-13984
烨	-13985
烩	-13986
烺	-13987
焄	-13988
焏	-13989
焗	-13990
煓	-13991
煛	-13992
煲	-13993
熅	-13994
熇	-13995
熠	-13996
熢	-13997
熯	-13998
爀	-13999
爝	-14000
爷	-14001
爹	-14002
牕	-14003
牗	-14004
牵	-14005
犕	-14006
犰	-14007
犼	-14008
狃	-14009
狍	-14010
狳	-14011
猒	-14012
猕	-14013
猝	-14014
獘	-14015
獱	-14016
獶	-14017
獾	-14018
玁	-14019
玛	-14020
玟	-14021
玨	-14022
玪	-14023
环	-14024
玷	-14025
玼	-14026
珓	-14027
珵	-14028
珹	-14029
琄	-14030
琓	-14031
琤	-14032
琭	-14033
琹	-14034
瑆	-14035
瑇	-14036
瑎	-14037
瑦	-14038
瑨	-14039
瑲	-14040
璀	-14041
璙	-14042
璚	-14043
璥	-14044
璬	-14045
璮	-14046
璱	-14047
璷	-14048
瓈	-14049
瓐	-14050
瓺	-14051
甂	-14052
甓	-14053
甿	-14054
畀	-14055
畐	-14056
畗	-14057
畾	-14058
疐	-14059
痀	-14060
痆	-14061
痠	-14062
瘈	-14063
瘉	-14064
瘖	-14065
瘸	-14066
癋	-14067
皃	-14068
皥	-14069
皦	-14070
皶	-14071
盅	-14072
盐	-14073
眀	-14074
眚	-14075
睇	-14076
瞕	-14077
瞟	-14078
瞫	-14079
瞹	-14080
矞	-14081
矟	-14082
矬	-14083
矸	-14084
砑	-14085
砣	-14086
砬	-14087
砵	-14088
砾	-14089
硃	-14090
硐	-14091
碏	-14092
碖	-14093
碘	-14094
碡	-14095
碪	-14096
碫	-14097
碯	-14098
磅	-14099
磵	-14100
礆	-14101
礟	-14102
礩	-14103
礮	-14104
礴	-14105
礵	-14106
禀	-14107
禃	-14108
禝	-14109
禟	-14110
禩	-14111
禯	-14112
秞	-14113
积	-14114
秺	-14115
秼	-14116
稘	-14117
稭	-14118
穄	-14119
窆	-14120
窝	-14121
窹	-14122
窼	-14123
竅	-14124
竧	-14125
竸	-14126
笇	-14127
笟	-14128
笪	-14129
笴	-14130
筛	-14131
筭	-14132
签	-14133
筿	-14134
箬	-14135
箺	-14136
篗	-14137
簟	-14138
簹	-14139
籕	-14140
籩	-14141
籭	-14142
籮	-14143
籼	-14144
籽	-14145
粰	-14146
糅	-14147
糢	-14148
紪	-14149
絧	-14150
綍	-14151
綗	-14152
綘	-14153
綣	-14154
緗	-14155
緥	-14156
緧	-14157
縝	-14158
縨	-14159
縲	-14160
繄	-14161
繘	-14162
纃	-14163
纊	-14164
纍	-14165
纎	-14166
纑	-14167
纕	-14168
纬	-14169
纲	-14170
纸	-14171
组	-14172
织	-14173
绍	-14174
给	-14175
络	-14176
绥	-14177
继	-14178
绳	-14179
绸	-14180
缉	-14181
缐	-14182
缲	-14183
罇	-14184
罣	-14185
罸	-14186
罾	-14187
羡	-14188
耖	-14189
聆	-14190
聱	-14191
胍	-14192
胜	-14193
胭	-14194
脃	-14195
脑	-14196
脞	-14197
脲	-14198
腌	-14199
腨	-14200
腴	-14201
膑	-14202
膰	-14203
膸	-14204
臞	-14205
臠	-14206
舀	-14207
舡	-14208
舲	-14209
艏	-14210
艚	-14211
艝	-14212
艠	-14213
艣	-14214
艨	-14215
艿	-14216
芃	-14217
芄	-14218
芑	-14219
芔	-14220
芘	-14221
芡	-14222
芤	-14223
芲	-14224
苍	-14225
茁	-14226
茞	-14227
茧	-14228
荇	-14229
荢	-14230
荣	-14231
莔	-14232
莲	-14233
莹	-14234
莺	-14235
菉	-14236
菝	-14237
萣	-14238
萹	-14239
葂	-14240
葜	-14241
葟	-14242
葰	-14243
蒧	-14244
蒪	-14245
蒾	-14246
蓺	-14247
蔂	-14248
蔆	-14249
蔎	-14250
蔐	-14251
蔞	-14252
蔟	-14253
蔥	-14254
蔴	-14255
蕀	-14256
蕆	-14257
蕐	-14258
蕑	-14259
蕲	-14260
蕹	-14261
薘	-14262
薢	-14263
藊	-14264
藶	-14265
藾	-14266
蘒	-14267
蘩	-14268
虆	-14269
虠	-14270
虦	-14271
虽	-14272
蚇	-14273
蚒	-14274
蚖	-14275
蚧	-14276
蚫	-14277
蚳	-14278
蚸	-14279
蛦	-14280
蛺	-14281
蛼	-14282
蛽	-14283
蜙	-14284
蜞	-14285
蜡	-14286
蜢	-14287
蜿	-14288
蝀	-14289
蝃	-14290
蝄	-14291
蝥	-14292
蝲	-14293
蝼	-14294
螇	-14295
螋	-14296
螐	-14297
螕	-14298
螘	-14299
螙	-14300
螞	-14301
螧	-14302
螾	-14303
蟊	-14304
蟑	-14305
蟛	-14306
蟫	-14307
蟳	-14308
蠁	-14309
蠃	-14310
蠆	-14311
蠎	-14312
蠙	-14313
蠛	-14314
蠰	-14315
蠼	-14316
衂	-14317
衤	-14318
补	-14319
衹	-14320
袌	-14321
袛	-14322
裊	-14323
裯	-14324
褎	-14325
褭	-14326
襆	-14327
覣	-14328
覦	-14329
觉	-14330
觔	-14331
觖	-14332
觥	-14333
觧	-14334
觶	-14335
訒	-14336
訔	-14337
訷	-14338
訸	-14339
詆	-14340
詑	-14341
詖	-14342
詘	-14343
詙	-14344
誧	-14345
誩	-14346
諪	-14347
譎	-14348
讨	-14349
讼	-14350
设	-14351
词	-14352
试	-14353
诗	-14354
诚	-14355
诸	-14356
诺	-14357
读	-14358
谓	-14359
谢	-14360
谨	-14361
谱	-14362
豇	-14363
豼	-14364
豽	-14365
貍	-14366
貗	-14367
貙	-14368
貭	-14369
賍	-14370
賺	-14371
贒	-14372
贝	-14373
贤	-14374
败	-14375
贴	-14376
贷	-14377
费	-14378
贺	-14379
赏	-14380
赐	-14381
赞	-14382
赣	-14383
赶	-14384
趞	-14385
趟	-14386
趯	-14387
趵	-14388
跃	-14389
跢	-14390
踈	-14391
踶	-14392
蹬	-14393
蹰	-14394
蹹	-14395
躻	-14396
輄	-14397
輬	-14398
輺	-14399
轌	-14400
轞	-14401
轨	-14402
轩	-14403
轮	-14404
软	-14405
轻	-14406
辉	-14407
辑	-14408
辖	-14409
辡	-14410
边	-14411
迈	-14412
还	-14413
进	-14414
迶	-14415
逎	-14416
逛	-14417
逨	-14418
遉	-14419
遟	-14420
遫	-14421
邐	-14422
邔	-14423
邟	-14424
郻	-14425
鄇	-14426
鄘	-14427
鄛	-14428
鄻	-14429
酃	-14430
酅	-14431
酖	-14432
醃	-14433
釃	-14434
釕	-14435
釡	-14436
釥	-14437
釩	-14438
釬	-14439
釱	-14440
釶	-14441
釷	-14442
鈉	-14443
鈊	-14444
鈖	-14445
鈨	-14446
鈫	-14447
鈮	-14448
鈵	-14449
鈼	-14450
鉑	-14451
銉	-14452
銊	-14453
銙	-14454
銲	-14455
鋅	-14456
鋐	-14457
鋣	-14458
鋰	-14459
錛	-14460
鍁	-14461
鍄	-14462
鍊	-14463
鍙	-14464
鍠	-14465
鍤	-14466
鎏	-14467
鎛	-14468
鎨	-14469
鏆	-14470
鏽	-14471
鐮	-14472
鐳	-14473
鐽	-14474
鑯	-14475
鑱	-14476
鑴	-14477
针	-14478
钎	-14479
钦	-14480
钰	-14481
钺	-14482
铸	-14483
链	-14484
铿	-14485
锋	-14486
锐	-14487
锡	-14488
锵	-14489
镖	-14490
镴	-14491
閡	-14492
闃	-14493
闟	-14494
闤	-14495
闻	-14496
阎	-14497
阢	-14498
阬	-14499
阶	-14500
阽	-14501
陆	-14502
陏	-14503
陖	-14504
险	-14505
隖	-14506
隤	-14507
隩	-14508
雾	-14509
霈	-14510
霣	-14511
霤	-14512
靁	-14513
靹	-14514
鞢	-14515
韌	-14516
韐	-14517
韘	-14518
韡	-14519
韧	-14520
韩	-14521
韪	-14522
韲	-14523
韺	-14524
韾	-14525
頄	-14526
頥	-14527
顬	-14528
顳	-14529
顴	-14530
须	-14531
颐	-14532
题	-14533
颜	-14534
额	-14535
颻	-14536
飪	-14537
飭	-14538
餼	-14539
饍	-14540
饐	-14541
饰	-14542
饱	-14543
馣	-14544
馯	-14545
馰	-14546
馿	-14547
駧	-14548
駼	-14549
騊	-14550
騌	-14551
騑	-14552
騠	-14553
騣	-14554
騷	-14555
驂	-14556
骁	-14557
骊	-14558
骑	-14559
骚	-14560
骵	-14561
髐	-14562
髥	-14563
髾	-14564
鬂	-14565
鬉	-14566
鬙	-14567
鬛	-14568
鬭	-14569
鬷	-14570
魒	-14571
魓	-14572
魣	-14573
魦	-14574
魨	-14575
魪	-14576
魿	-14577
鮊	-14578
鮍	-14579
鮦	-14580
鮧	-14581
鮬	-14582
鯃	-14583
鯎	-14584
鯑	-14585
鯓	-14586
鯕	-14587
鯳	-14588
鯶	-14589
鯿	-14590
鰀	-14591
鰋	-14592
鰘	-14593
鰙	-14594
鰜	-14595
鰞	-14596
鰨	-14597
鰵	-14598
鰶	-14599
鰷	-14600
鱁	-14601
鱂	-14602
鱍	-14603
鱔	-14604
鱢	-14605
鱣	-14606
鱤	-14607
鱨	-14608
鱫	-14609
鱭	-14610
鱺	-14611
鲁	-14612
鲨	-14613
鳌	-14614
鴝	-14615
鴯	-14616
鴲	-14617
鵃	-14618
鵇	-14619
鵒	-14620
鵶	-14621
鶓	-14622
鶕	-14623
鶖	-14624
鶤	-14625
鶬	-14626
鶹	-14627
鷉	-14628
鷙	-14629
鷣	-14630
鸐	-14631
鸓	-14632
鸖	-14633
鸣	-14634
鸯	-14635
鸱	-14636
鸳	-14637
鹏	-14638
鹤	-14639
鹰	-14640
麀	-14641
麖	-14642
麘	-14643
麤	-14644
麨	-14645
黷	-14646
鼕	-14647
鼗	-14648
鼙	-14649
鼢	-14650
鼷	-14651
鼹	-14652
鼺	-14653
齅	-14654
齌	-14655
齍	-14656
齰	-14657
齿	-14658
龎	-14659
龞	-14660
龥	-14661
ꅉ	-14662
ꆀ	-14663
ꆈ	-14664
ꆿ	-14665
ꊨ	-14666
ꌠ	-14667
ꏦ	-14668
ꏱ	-14669
ꑤ	-14670
꜠	-14671
꜡	-14672
ꡂ	-14673
ꡊ	-14674
ꡎ	-14675
ꡙ	-14676
ꡛ	-14677
ꭶ	-14678
ꭹ	-14679
ꮅ	-14680
ꮎ	-14681
ꮗ	-14682
ꮙ	-14683
ꮝ	-14684
ꮟ	-14685
ꮻ	-14686
ꮽ	-14687
ꮿ	-14688
감	-14689
갱	-14690
걔	-14691
걷	-14692
겐	-14693
겜	-14694
겠	-14695
곰	-14696
곱	-14697
곶	-14698
괜	-14699
굿	-14700
긑	-14701
긴	-14702
깋	-14703
깐	-14704
꼬	-14705
꽁	-14706
꾜	-14707
꾼	-14708
꿈	-14709
끗	-14710
끼	-14711
낀	-14712
낭	-14713
낯	-14714
냥	-14715
넌	-14716
넥	-14717
녁	-14718
녈	-14719
녘	-14720
녹	-14721
놈	-14722
눈	-14723
뉼	-14724
느	-14725
닉	-14726
닫	-14727
닷	-14728
댐	-14729
덜	-14730
덴	-14731
뎅	-14732
돗	-14733
되	-14734
둔	-14735
뒷	-14736
든	-14737
듭	-14738
땅	-14739
때	-14740
땡	-14741
뛰	-14742
뜬	-14743
랍	-14744
럭	-14745
런	-14746
럴	-14747
럽	-14748
례	-14749
록	-14750
료	-14751
룸	-14752
른	-14753
릭	-14754
링	-14755
맞	-14756
맥	-14757
먼	-14758
며	-14759
몬	-14760
몰	-14761
묘	-14762
묵	-14763
뮬	-14764
밌	-14765
및	-14766
밟	-14767
밤	-14768
뱃	-14769
뱅	-14770
벚	-14771
베	-14772
벽	-14773
볶	-14774
볼	-14775
뵈	-14776
블	-14777
빙	-14778
빨	-14779
빽	-14780
삐	-14781
삭	-14782
섀	-14783
셔	-14784
셜	-14785
셰	-14786
솔	-14787
솟	-14788
쇼	-14789
숟	-14790
숫	-14791
쉬	-14792
슴	-14793
싱	-14794
싶	-14795
쌀	-14796
썬	-14797
쏘	-14798
앤	-14799
얘	-14800
억	-14801
엌	-14802
염	-14803
옫	-14804
옹	-14805
왼	-14806
웨	-14807
윙	-14808
읓	-14809
읔	-14810
잇	-14811
잠	-14812
잼	-14813
쟤	-14814
적	-14815
젯	-14816
줄	-14817
줘	-14818
쥐	-14819
증	-14820
직	-14821
짐	-14822
집	-14823
짓	-14824
째	-14825
쨩	-14826
쩐	-14827
쭉	-14828
쯔	-14829
찐	-14830
착	-14831
찮	-14832
찹	-14833
책	-14834
챔	-14835
쳐	-14836
춤	-14837
취	-14838
츄	-14839
칼	-14840
캔	-14841
캡	-14842
컴	-14843
컵	-14844
킨	-14845
탣	-14846
텔	-14847
템	-14848
톨	-14849
톰	-14850
투	-14851
튼	-14852
틸	-14853
팀	-14854
팩	-14855
펄	-14856
펨	-14857
폭	-14858
풀	-14859
플	-14860
핀	-14861
핑	-14862
항	-14863
했	-14864
헌	-14865
홈	-14866
훗	-14867
휴	-14868
흑	-14869
흔	-14870
흰	-14871
힌	-14872
	-14873
﨤	-14874
𐌰	-14875
𐌳	-14876
𐌴	-14877
𐌸	-14878
𐌺	-14879
𐌿	-14880
𐍂	-14881
𐍃	-14882
𐎠	-14883
𐎬	-14884
𐎳	-14885
𐎼	-14886
𐐷	-14887
𐤂	-14888
𐤄	-14889
𐤊	-14890
𐤓	-14891
𐭂	-14892
𐭅	-14893
𐭆	-14894
𐭓	-14895
𐭕	-14896
𐳉	-14897
𐳋	-14898
𐳎	-14899
𐳓	-14900
𐳗	-14901
𐳘	-14902
𐳛	-14903
𐳤	-14904
𐳥	-14905
𐳮	-14906
𒁈	-14907
𒂆	-14908
𒄑	-14909
𒄒	-14910
𒅁	-14911
𒅖	-14912
𒈦	-14913
𒉣	-14914
𒊏	-14915
𒌅	-14916
𒌑	-14917
𒌓	-14918
𛀀	-14919
𛀁	-14920
🇨	-14921
🇳	-14922
🍀	-14923
🍑	-14924
🐩	-14925
💢	-14926
💧	-14927
💾	-14928
🔴	-14929
🖕	-14930
🜁	-14931
🜃	-14932
🜄	-14933
𠀋	-14934
𠂢	-14935
𠐤	-14936
𠓿	-14937
𠕇	-14938
𠧋	-14939
𠭯	-14940
𠰢	-14941
𠺕	-14942
𡉻	-14943
𡍄	-14944
𡘷	-14945
𡙇	-14946
𡦗	-14947
𡩛	-14948
𡮲	-14949
𢈴	-14950
𢌞	-14951
𣂑	-14952
𣏓	-14953
𣗄	-14954
𣘺	-14955
𣘻	-14956
𣜬	-14957
𣦵	-14958
𤇅	-14959
𤇥	-14960
𤌤	-14961
𤘽	-14962
𤟹	-14963
𤣰	-14964
𤪠	-14965
𤰃	-14966
𥢓	-14967
𥶄	-14968
𥸯	-14969
𥹠	-14970
𦱳	-14971
𧈢	-14972
𧏛	-14973
𧏡	-14974
𧘔	-14975
𧘕	-14976
𧮾	-14977
𧳜	-14978
𧵑	-14979
𨁂	-14980
𨊂	-14981
𨨗	-14982
𨭻	-14983
𨱽	-14984
𨸏	-14985
𩅦	-14986
𩙿	-14987
𩡤	-14988
𩩓	-14989
𩲃	-14990
𩳐	-14991
𩵄	-14992
𩵋	-14993
𩶗	-14994
𩷑	-14995
𩸶	-14996
